{
  "version": "1.0",
  "truncation": {
    "direction": "Right",
    "max_length": 128,
    "strategy": "LongestFirst",
    "stride": 0
  },
  "padding": {
    "strategy": {
      "Fixed": 128
    },
    "direction": "Right",
    "pad_to_multiple_of": null,
    "pad_id": 0,
    "pad_type_id": 0,
    "pad_token": "[PAD]"
  },
  "added_tokens": [
    {
      "id": 0,
      "content": "[PAD]",
      "single_word": false,
      "lstrip": false,
      "rstrip": false,
      "normalized": false,
      "special": true
    },
    {
      "id": 1,
      "content": "[UNK]",
      "single_word": false,
      "lstrip": false,
      "rstrip": false,
      "normalized": false,
      "special": true
    },
    {
      "id": 2,
      "content": "[CLS]",
      "single_word": false,
      "lstrip": false,
      "rstrip": false,
      "normalized": false,
      "special": true
    },
    {
      "id": 3,
      "content": "[SEP]",
      "single_word": false,
      "lstrip": false,
      "rstrip": false,
      "normalized": false,
      "special": true
    },
    {
      "id": 4,
      "content": "[MASK]",
      "single_word": false,
      "lstrip": false,
      "rstrip": false,
      "normalized": false,
      "special": true
    }
  ],
  "normalizer": {
    "type": "BertNormalizer",
    "clean_text": true,
    "handle_chinese_chars": true,
    "strip_accents": null,
    "lowercase": false
  },
  "pre_tokenizer": {
    "type": "BertPreTokenizer"
  },
  "post_processor": {
    "type": "TemplateProcessing",
    "single": [
      {
        "SpecialToken": {
          "id": "[CLS]",
          "type_id": 0
        }
      },
      {
        "Sequence": {
          "id": "A",
          "type_id": 0
        }
      },
      {
        "SpecialToken": {
          "id": "[SEP]",
          "type_id": 0
        }
      }
    ],
    "pair": [
      {
        "SpecialToken": {
          "id": "[CLS]",
          "type_id": 0
        }
      },
      {
        "Sequence": {
          "id": "A",
          "type_id": 0
        }
      },
      {
        "SpecialToken": {
          "id": "[SEP]",
          "type_id": 0
        }
      },
      {
        "Sequence": {
          "id": "B",
          "type_id": 1
        }
      },
      {
        "SpecialToken": {
          "id": "[SEP]",
          "type_id": 1
        }
      }
    ],
    "special_tokens": {
      "[CLS]": {
        "id": "[CLS]",
        "ids": [
          2
        ],
        "tokens": [
          "[CLS]"
        ]
      },
      "[SEP]": {
        "id": "[SEP]",
        "ids": [
          3
        ],
        "tokens": [
          "[SEP]"
        ]
      }
    }
  },
  "decoder": {
    "type": "WordPiece",
    "prefix": "##",
    "cleanup": true
  },
  "model": {
    "type": "WordPiece",
    "unk_token": "[UNK]",
    "continuing_subword_prefix": "##",
    "max_input_chars_per_word": 100,
    "vocab": {
      "[PAD]": 0,
      "[UNK]": 1,
      "[CLS]": 2,
      "[SEP]": 3,
      "[MASK]": 4,
      "!": 5,
      "\"": 6,
      "#": 7,
      "$": 8,
      "%": 9,
      "&": 10,
      "'": 11,
      "(": 12,
      ")": 13,
      "*": 14,
      "+": 15,
      ",": 16,
      "-": 17,
      ".": 18,
      "/": 19,
      "0": 20,
      "1": 21,
      "2": 22,
      "3": 23,
      "4": 24,
      "5": 25,
      "6": 26,
      "7": 27,
      "8": 28,
      "9": 29,
      ":": 30,
      ";": 31,
      "<": 32,
      "=": 33,
      ">": 34,
      "?": 35,
      "@": 36,
      "A": 37,
      "B": 38,
      "C": 39,
      "D": 40,
      "E": 41,
      "F": 42,
      "G": 43,
      "H": 44,
      "I": 45,
      "J": 46,
      "K": 47,
      "L": 48,
      "M": 49,
      "N": 50,
      "O": 51,
      "P": 52,
      "Q": 53,
      "R": 54,
      "S": 55,
      "T": 56,
      "U": 57,
      "V": 58,
      "W": 59,
      "X": 60,
      "Y": 61,
      "Z": 62,
      "[": 63,
      "\\": 64,
      "]": 65,
      "^": 66,
      "_": 67,
      "`": 68,
      "a": 69,
      "b": 70,
      "c": 71,
      "d": 72,
      "e": 73,
      "f": 74,
      "g": 75,
      "h": 76,
      "i": 77,
      "j": 78,
      "k": 79,
      "l": 80,
      "m": 81,
      "n": 82,
      "o": 83,
      "p": 84,
      "q": 85,
      "r": 86,
      "s": 87,
      "t": 88,
      "u": 89,
      "v": 90,
      "w": 91,
      "x": 92,
      "y": 93,
      "z": 94,
      "{": 95,
      "|": 96,
      "}": 97,
      "~": 98,
      "¡": 99,
      "¢": 100,
      "£": 101,
      "¥": 102,
      "§": 103,
      "©": 104,
      "«": 105,
      "¬": 106,
      "®": 107,
      "¯": 108,
      "°": 109,
      "±": 110,
      "²": 111,
      "³": 112,
      "´": 113,
      "µ": 114,
      "¶": 115,
      "·": 116,
      "¸": 117,
      "¹": 118,
      "º": 119,
      "»": 120,
      "¼": 121,
      "½": 122,
      "¾": 123,
      "¿": 124,
      "Æ": 125,
      "×": 126,
      "Ø": 127,
      "Þ": 128,
      "ß": 129,
      "æ": 130,
      "ð": 131,
      "÷": 132,
      "ø": 133,
      "Đ": 134,
      "đ": 135,
      "ı": 136,
      "ł": 137,
      "ŋ": 138,
      "œ": 139,
      "ƿ": 140,
      "ȼ": 141,
      "ɒ": 142,
      "ə": 143,
      "ɡ": 144,
      "ɪ": 145,
      "ɿ": 146,
      "ʽ": 147,
      "ˌ": 148,
      "ː": 149,
      "˚": 150,
      "˜": 151,
      "Γ": 152,
      "Δ": 153,
      "α": 154,
      "β": 155,
      "γ": 156,
      "δ": 157,
      "θ": 158,
      "λ": 159,
      "μ": 160,
      "ξ": 161,
      "π": 162,
      "ρ": 163,
      "φ": 164,
      "χ": 165,
      "ω": 166,
      "А": 167,
      "Б": 168,
      "В": 169,
      "Г": 170,
      "Д": 171,
      "Е": 172,
      "Ж": 173,
      "З": 174,
      "И": 175,
      "К": 176,
      "Л": 177,
      "М": 178,
      "Н": 179,
      "О": 180,
      "П": 181,
      "Р": 182,
      "С": 183,
      "Т": 184,
      "У": 185,
      "Ф": 186,
      "Х": 187,
      "Ц": 188,
      "Ч": 189,
      "Ш": 190,
      "Щ": 191,
      "Э": 192,
      "Ю": 193,
      "Я": 194,
      "а": 195,
      "б": 196,
      "в": 197,
      "г": 198,
      "д": 199,
      "е": 200,
      "ж": 201,
      "з": 202,
      "и": 203,
      "к": 204,
      "л": 205,
      "м": 206,
      "н": 207,
      "о": 208,
      "п": 209,
      "р": 210,
      "с": 211,
      "т": 212,
      "у": 213,
      "ф": 214,
      "х": 215,
      "ц": 216,
      "ч": 217,
      "ш": 218,
      "щ": 219,
      "ъ": 220,
      "ы": 221,
      "ь": 222,
      "э": 223,
      "ю": 224,
      "я": 225,
      "ѕ": 226,
      "і": 227,
      "،": 228,
      "؟": 229,
      "ء": 230,
      "ا": 231,
      "ب": 232,
      "ة": 233,
      "ت": 234,
      "ث": 235,
      "ج": 236,
      "ح": 237,
      "خ": 238,
      "د": 239,
      "ذ": 240,
      "ر": 241,
      "ز": 242,
      "س": 243,
      "ش": 244,
      "ص": 245,
      "ض": 246,
      "ط": 247,
      "ظ": 248,
      "ع": 249,
      "غ": 250,
      "ـ": 251,
      "ف": 252,
      "ق": 253,
      "ك": 254,
      "ل": 255,
      "م": 256,
      "ن": 257,
      "ه": 258,
      "و": 259,
      "ى": 260,
      "ي": 261,
      "١": 262,
      "٧": 263,
      "ٮ": 264,
      "ٱ": 265,
      "ٲ": 266,
      "ڪ": 267,
      "ھ": 268,
      "ہ": 269,
      "ی": 270,
      "۞": 271,
      "ۥ": 272,
      "ۦ": 273,
      "ߔ": 274,
      "૯": 275,
      "ಥ": 276,
      "ძ": 277,
      "ᄀ": 278,
      "ᄁ": 279,
      "ᄂ": 280,
      "ᄃ": 281,
      "ᄅ": 282,
      "ᄆ": 283,
      "ᄇ": 284,
      "ᄉ": 285,
      "ᄋ": 286,
      "ᄌ": 287,
      "ᄎ": 288,
      "ᄐ": 289,
      "ᄑ": 290,
      "ᄒ": 291,
      "ᅡ": 292,
      "ᅢ": 293,
      "ᅣ": 294,
      "ᅥ": 295,
      "ᅦ": 296,
      "ᅧ": 297,
      "ᅩ": 298,
      "ᅪ": 299,
      "ᅬ": 300,
      "ᅭ": 301,
      "ᅮ": 302,
      "ᅳ": 303,
      "ᅵ": 304,
      "ᆨ": 305,
      "ᆫ": 306,
      "ᆯ": 307,
      "ᆷ": 308,
      "ᆸ": 309,
      "ᆺ": 310,
      "ᆻ": 311,
      "ᆼ": 312,
      "ᇀ": 313,
      "ᇂ": 314,
      "‑": 315,
      "–": 316,
      "—": 317,
      "‘": 318,
      "’": 319,
      "‚": 320,
      "‛": 321,
      "“": 322,
      "”": 323,
      "„": 324,
      "‟": 325,
      "•": 326,
      "…": 327,
      "‰": 328,
      "″": 329,
      "›": 330,
      "※": 331,
      "‼": 332,
      "₂": 333,
      "€": 334,
      "⃣": 335,
      "℅": 336,
      "№": 337,
      "™": 338,
      "⅓": 339,
      "Ⅱ": 340,
      "→": 341,
      "↵": 342,
      "−": 343,
      "∝": 344,
      "∥": 345,
      "≈": 346,
      "≤": 347,
      "≥": 348,
      "≫": 349,
      "⋅": 350,
      "⋆": 351,
      "ⓒ": 352,
      "─": 353,
      "■": 354,
      "►": 355,
      "▼": 356,
      "◊": 357,
      "○": 358,
      "●": 359,
      "★": 360,
      "☞": 361,
      "☹": 362,
      "☺": 363,
      "♀": 364,
      "♡": 365,
      "♥": 366,
      "⚔": 367,
      "⚡": 368,
      "⚪": 369,
      "⚫": 370,
      "⚽": 371,
      "⛸": 372,
      "✅": 373,
      "✋": 374,
      "✌": 375,
      "✓": 376,
      "✔": 377,
      "✨": 378,
      "❌": 379,
      "❓": 380,
      "❗": 381,
      "❤": 382,
      "➖": 383,
      "➡": 384,
      "⠀": 385,
      "⬇": 386,
      "。": 387,
      "〈": 388,
      "〉": 389,
      "「": 390,
      "」": 391,
      "『": 392,
      "』": 393,
      "【": 394,
      "】": 395,
      "ア": 396,
      "イ": 397,
      "ェ": 398,
      "カ": 399,
      "ク": 400,
      "コ": 401,
      "ス": 402,
      "ッ": 403,
      "ト": 404,
      "ハ": 405,
      "フ": 406,
      "マ": 407,
      "ル": 408,
      "ロ": 409,
      "ン": 410,
      "ー": 411,
      "ㅠ": 412,
      "万": 413,
      "下": 414,
      "与": 415,
      "世": 416,
      "东": 417,
      "两": 418,
      "中": 419,
      "丰": 420,
      "主": 421,
      "乐": 422,
      "了": 423,
      "交": 424,
      "京": 425,
      "人": 426,
      "介": 427,
      "但": 428,
      "住": 429,
      "你": 430,
      "佳": 431,
      "元": 432,
      "兆": 433,
      "克": 434,
      "入": 435,
      "全": 436,
      "公": 437,
      "共": 438,
      "再": 439,
      "冰": 440,
      "凡": 441,
      "分": 442,
      "刘": 443,
      "到": 444,
      "力": 445,
      "区": 446,
      "協": 447,
      "单": 448,
      "即": 449,
      "原": 450,
      "县": 451,
      "反": 452,
      "受": 453,
      "只": 454,
      "可": 455,
      "吉": 456,
      "同": 457,
      "吳": 458,
      "告": 459,
      "周": 460,
      "味": 461,
      "和": 462,
      "品": 463,
      "哲": 464,
      "四": 465,
      "国": 466,
      "國": 467,
      "地": 468,
      "坦": 469,
      "城": 470,
      "壓": 471,
      "士": 472,
      "大": 473,
      "太": 474,
      "奕": 475,
      "奖": 476,
      "好": 477,
      "婷": 478,
      "孔": 479,
      "学": 480,
      "它": 481,
      "宇": 482,
      "宏": 483,
      "家": 484,
      "宾": 485,
      "将": 486,
      "對": 487,
      "小": 488,
      "就": 489,
      "山": 490,
      "工": 491,
      "币": 492,
      "市": 493,
      "平": 494,
      "年": 495,
      "庆": 496,
      "廢": 497,
      "开": 498,
      "异": 499,
      "张": 500,
      "形": 501,
      "從": 502,
      "德": 503,
      "忠": 504,
      "戏": 505,
      "成": 506,
      "或": 507,
      "战": 508,
      "户": 509,
      "扬": 510,
      "据": 511,
      "接": 512,
      "推": 513,
      "提": 514,
      "撕": 515,
      "收": 516,
      "放": 517,
      "数": 518,
      "文": 519,
      "断": 520,
      "新": 521,
      "日": 522,
      "明": 523,
      "是": 524,
      "智": 525,
      "月": 526,
      "有": 527,
      "服": 528,
      "未": 529,
      "李": 530,
      "来": 531,
      "杨": 532,
      "東": 533,
      "析": 534,
      "林": 535,
      "染": 536,
      "棄": 537,
      "槟": 538,
      "橋": 539,
      "欢": 540,
      "款": 541,
      "歉": 542,
      "武": 543,
      "毛": 544,
      "民": 545,
      "水": 546,
      "污": 547,
      "河": 548,
      "泓": 549,
      "洋": 550,
      "流": 551,
      "测": 552,
      "淆": 553,
      "混": 554,
      "港": 555,
      "游": 556,
      "潘": 557,
      "炮": 558,
      "王": 559,
      "玩": 560,
      "琰": 561,
      "甲": 562,
      "町": 563,
      "界": 564,
      "番": 565,
      "的": 566,
      "码": 567,
      "礼": 568,
      "程": 569,
      "简": 570,
      "系": 571,
      "级": 572,
      "纳": 573,
      "线": 574,
      "绍": 575,
      "编": 576,
      "网": 577,
      "者": 578,
      "聪": 579,
      "致": 580,
      "艺": 581,
      "节": 582,
      "苏": 583,
      "范": 584,
      "行": 585,
      "裂": 586,
      "装": 587,
      "要": 588,
      "議": 589,
      "计": 590,
      "讯": 591,
      "设": 592,
      "说": 593,
      "课": 594,
      "贷": 595,
      "资": 596,
      "起": 597,
      "超": 598,
      "路": 599,
      "车": 600,
      "辦": 601,
      "通": 602,
      "造": 603,
      "邀": 604,
      "邊": 605,
      "都": 606,
      "金": 607,
      "鑫": 608,
      "钰": 609,
      "阵": 610,
      "陈": 611,
      "隋": 612,
      "際": 613,
      "隱": 614,
      "青": 615,
      "靖": 616,
      "静": 617,
      "面": 618,
      "靳": 619,
      "鞋": 620,
      "韩": 621,
      "颜": 622,
      "香": 623,
      "马": 624,
      "黑": 625,
      "ﬂ": 626,
      "﴾": 627,
      "﴿": 628,
      "ﷺ": 629,
      "ﺍ": 630,
      "ﺠ": 631,
      "ﺴ": 632,
      "ﻌ": 633,
      "ﻓ": 634,
      "ﻘ": 635,
      "ﻞ": 636,
      "ﻟ": 637,
      "ﻠ": 638,
      "ﻢ": 639,
      "ﻲ": 640,
      "ﻴ": 641,
      "！": 642,
      "（": 643,
      "）": 644,
      "，": 645,
      "：": 646,
      "？": 647,
      "Ａ": 648,
      "Ｄ": 649,
      "Ｅ": 650,
      "Ｉ": 651,
      "Ｊ": 652,
      "Ｋ": 653,
      "Ｍ": 654,
      "Ｎ": 655,
      "Ｏ": 656,
      "Ｐ": 657,
      "Ｒ": 658,
      "Ｓ": 659,
      "ｅ": 660,
      "ｎ": 661,
      "ｒ": 662,
      "ｔ": 663,
      "𝐋": 664,
      "𝐍": 665,
      "𝐎": 666,
      "𝐘": 667,
      "𝘽": 668,
      "𝙏": 669,
      "𝙖": 670,
      "𝙘": 671,
      "𝙚": 672,
      "𝙝": 673,
      "𝙞": 674,
      "𝙡": 675,
      "𝙥": 676,
      "𝙧": 677,
      "𝙩": 678,
      "🅰": 679,
      "🇦": 680,
      "🇧": 681,
      "🇨": 682,
      "🇩": 683,
      "🇪": 684,
      "🇫": 685,
      "🇬": 686,
      "🇭": 687,
      "🇮": 688,
      "🇰": 689,
      "🇱": 690,
      "🇲": 691,
      "🇳": 692,
      "🇷": 693,
      "🇸": 694,
      "🇹": 695,
      "🇺": 696,
      "🇻": 697,
      "🇽": 698,
      "🇾": 699,
      "🇿": 700,
      "🌙": 701,
      "🌪": 702,
      "🌹": 703,
      "🌺": 704,
      "🌻": 705,
      "🍆": 706,
      "🎓": 707,
      "🎥": 708,
      "🏆": 709,
      "🏈": 710,
      "🏻": 711,
      "🏼": 712,
      "🏾": 713,
      "🐳": 714,
      "👀": 715,
      "👇": 716,
      "👉": 717,
      "👌": 718,
      "👍": 719,
      "👏": 720,
      "💖": 721,
      "💙": 722,
      "💛": 723,
      "💜": 724,
      "💥": 725,
      "💪": 726,
      "💰": 727,
      "📖": 728,
      "📰": 729,
      "📸": 730,
      "📹": 731,
      "📺": 732,
      "🔊": 733,
      "🔗": 734,
      "🔢": 735,
      "🔥": 736,
      "🔴": 737,
      "🖤": 738,
      "🗺": 739,
      "😀": 740,
      "😂": 741,
      "😃": 742,
      "😅": 743,
      "😉": 744,
      "😊": 745,
      "😍": 746,
      "😎": 747,
      "😕": 748,
      "😙": 749,
      "😠": 750,
      "😡": 751,
      "😢": 752,
      "😪": 753,
      "😬": 754,
      "😭": 755,
      "😱": 756,
      "😴": 757,
      "🙂": 758,
      "🙃": 759,
      "🙌": 760,
      "🙏": 761,
      "🚑": 762,
      "🚨": 763,
      "🤔": 764,
      "🤗": 765,
      "🤘": 766,
      "🤦": 767,
      "🤰": 768,
      "🤱": 769,
      "🤲": 770,
      "🥇": 771,
      "🥈": 772,
      "🥉": 773,
      "🥊": 774,
      "🥰": 775,
      "🦋": 776,
      "##i": 777,
      "##m": 778,
      "##b": 779,
      "##u": 780,
      "##l": 781,
      "##a": 782,
      "##h": 783,
      "##r": 784,
      "##n": 785,
      "##d": 786,
      "##s": 787,
      "##o": 788,
      "##c": 789,
      "##e": 790,
      "##t": 791,
      "##M": 792,
      "##T": 793,
      "##g": 794,
      "##p": 795,
      "##k": 796,
      "##y": 797,
      "##9": 798,
      "##1": 799,
      "##0": 800,
      "##z": 801,
      "##w": 802,
      "##I": 803,
      "##j": 804,
      "##v": 805,
      "##E": 806,
      "##R": 807,
      "##K": 808,
      "##A": 809,
      "##q": 810,
      "##B": 811,
      "##F": 812,
      "##f": 813,
      "##8": 814,
      "##4": 815,
      "##W": 816,
      "##5": 817,
      "##x": 818,
      "##3": 819,
      "##6": 820,
      "##P": 821,
      "##L": 822,
      "##O": 823,
      "##2": 824,
      "##е": 825,
      "##л": 826,
      "##о": 827,
      "##с": 828,
      "##и": 829,
      "##п": 830,
      "##д": 831,
      "##т": 832,
      "##в": 833,
      "##N": 834,
      "##D": 835,
      "##C": 836,
      "##X": 837,
      "##у": 838,
      "##U": 839,
      "##J": 840,
      "##H": 841,
      "##S": 842,
      "##G": 843,
      "##Y": 844,
      "##7": 845,
      "##Z": 846,
      "##н": 847,
      "##а": 848,
      "##я": 849,
      "##к": 850,
      "##х": 851,
      "##м": 852,
      "##р": 853,
      "##ы": 854,
      "##ч": 855,
      "##ш": 856,
      "##з": 857,
      "##V": 858,
      "##ь": 859,
      "##ش": 860,
      "##ك": 861,
      "##ر": 862,
      "##г": 863,
      "##Q": 864,
      "##б": 865,
      "##²": 866,
      "##ф": 867,
      "##ц": 868,
      "##ب": 869,
      "##ا": 870,
      "##ю": 871,
      "##🇱": 872,
      "##ı": 873,
      "##ж": 874,
      "##і": 875,
      "##ѕ": 876,
      "##ل": 877,
      "##ت": 878,
      "##ق": 879,
      "##و": 880,
      "##م": 881,
      "##ن": 882,
      "##ᅢ": 883,
      "##ᄋ": 884,
      "##ᅮ": 885,
      "##ᅧ": 886,
      "##ᄉ": 887,
      "##ᅥ": 888,
      "##غ": 889,
      "##ج": 890,
      "##ي": 891,
      "##ذ": 892,
      "##ه": 893,
      "##ð": 894,
      "##щ": 895,
      "##د": 896,
      "##ص": 897,
      "##°": 898,
      "##س": 899,
      "##خ": 900,
      "##−": 901,
      "##ع": 902,
      "##ة": 903,
      "##ح": 904,
      "##🏻": 905,
      "##♀": 906,
      "##ᆫ": 907,
      "##ᄒ": 908,
      "##ᅬ": 909,
      "##ß": 910,
      "##О": 911,
      "##ـ": 912,
      "##ٮ": 913,
      "##ᅵ": 914,
      "##ᄌ": 915,
      "##ᆼ": 916,
      "##ᅡ": 917,
      "##ᄀ": 918,
      "##ᅦ": 919,
      "##ف": 920,
      "##ᆺ": 921,
      "##ᅳ": 922,
      "##ᆷ": 923,
      "##ᄃ": 924,
      "##ᄇ": 925,
      "##ᆯ": 926,
      "##£": 927,
      "##¥": 928,
      "##⚡": 929,
      "##🇦": 930,
      "##🇲": 931,
      "##🇽": 932,
      "##🇺": 933,
      "##🇸": 934,
      "##ض": 935,
      "##ξ": 936,
      "##С": 937,
      "##К": 938,
      "##🏼": 939,
      "##👏": 940,
      "##Ф": 941,
      "##ث": 942,
      "##☺": 943,
      "##×": 944,
      "##ط": 945,
      "##А": 946,
      "##ø": 947,
      "##💰": 948,
      "##ظ": 949,
      "##ｎ": 950,
      "##ｔ": 951,
      "##ｅ": 952,
      "##ｒ": 953,
      "##ٱ": 954,
      "##э": 955,
      "##€": 956,
      "##œ": 957,
      "##😍": 958,
      "##ى": 959,
      "##🇷": 960,
      "##ز": 961,
      "##℅": 962,
      "##ء": 963,
      "##✔": 964,
      "##ۦ": 965,
      "##º": 966,
      "##И": 967,
      "##ʽ": 968,
      "##ł": 969,
      "##Р": 970,
      "##─": 971,
      "##⃣": 972,
      "##ᅩ": 973,
      "##ᆸ": 974,
      "##ᄂ": 975,
      "##Е": 976,
      "##М": 977,
      "##™": 978,
      "##˜": 979,
      "##В": 980,
      "##Ц": 981,
      "##Г": 982,
      "##У": 983,
      "##Т": 984,
      "##ъ": 985,
      "##⚪": 986,
      "##æ": 987,
      "##÷": 988,
      "##ɒ": 989,
      "##🖤": 990,
      "##®": 991,
      "##ڪ": 992,
      "##ۥ": 993,
      "##🇪": 994,
      "##ٲ": 995,
      "##ﻲ": 996,
      "##ی": 997,
      "##١": 998,
      "##٧": 999,
      "##П": 1000,
      "##±": 1001,
      "##❤": 1002,
      "##🇹": 1003,
      "##λ": 1004,
      "##đ": 1005,
      "##ھ": 1006,
      "##₂": 1007,
      "##🇳": 1008,
      "##¬": 1009,
      "##³": 1010,
      "##🇩": 1011,
      "##¸": 1012,
      "##Л": 1013,
      "##ᇀ": 1014,
      "##😡": 1015,
      "##ﻟ": 1016,
      "##ﺴ": 1017,
      "##ﻠ": 1018,
      "##ﻴ": 1019,
      "##ﻢ": 1020,
      "##🇾": 1021,
      "##🔥": 1022,
      "##½": 1023,
      "##Ｊ": 1024,
      "##Ｋ": 1025,
      "##ﺠ": 1026,
      "##🇨": 1027,
      "##Д": 1028,
      "##૯": 1029,
      "##ω": 1030,
      "##ძ": 1031,
      "##ɿ": 1032,
      "##ƿ": 1033,
      "##🇬": 1034,
      "##🇧": 1035,
      "##🤲": 1036,
      "##💛": 1037,
      "##ﬂ": 1038,
      "##ˌ": 1039,
      "##ɡ": 1040,
      "##ŋ": 1041,
      "##ə": 1042,
      "##¢": 1043,
      "##イ": 1044,
      "##ス": 1045,
      "##コ": 1046,
      "##ア": 1047,
      "##カ": 1048,
      "##ー": 1049,
      "##ル": 1050,
      "##Ⅱ": 1051,
      "##😭": 1052,
      "##✋": 1053,
      "##Ｉ": 1054,
      "##Ｎ": 1055,
      "##Ａ": 1056,
      "##Ｍ": 1057,
      "##😙": 1058,
      "##ᆨ": 1059,
      "##ᅪ": 1060,
      "##𝙝": 1061,
      "##𝙚": 1062,
      "##𝘽": 1063,
      "##𝙞": 1064,
      "##𝙧": 1065,
      "##𝙩": 1066,
      "##𝙥": 1067,
      "##𝙡": 1068,
      "##𝙖": 1069,
      "##𝙘": 1070,
      "##💥": 1071,
      "##ᄆ": 1072,
      "##ː": 1073,
      "##🏾": 1074,
      "##🇿": 1075,
      "##🤗": 1076,
      "##π": 1077,
      "##χ": 1078,
      "##ɪ": 1079,
      "##✌": 1080,
      "##ᄐ": 1081,
      "##🦋": 1082,
      "##⚽": 1083,
      "##→": 1084,
      "##ᅭ": 1085,
      "##ᄅ": 1086,
      "##Ｏ": 1087,
      "##Ｐ": 1088,
      "##Ｅ": 1089,
      "##Ｒ": 1090,
      "##Ｓ": 1091,
      "##🌙": 1092,
      "##ہ": 1093,
      "##★": 1094,
      "##γ": 1095,
      "##💖": 1096,
      "##ᇂ": 1097,
      "##ᆻ": 1098,
      "##ク": 1099,
      "##マ": 1100,
      "##ン": 1101,
      "##💪": 1102,
      "##¼": 1103,
      "##🌹": 1104,
      "##Ш": 1105,
      "##⬇": 1106,
      "##🏆": 1107,
      "##ᄁ": 1108,
      "##ᄎ": 1109,
      "##🙏": 1110,
      "##🤱": 1111,
      "##🤰": 1112,
      "##🇮": 1113,
      "##ト": 1114,
      "##ロ": 1115,
      "##ッ": 1116,
      "##フ": 1117,
      "##ェ": 1118,
      "##˚": 1119,
      "##🗺": 1120,
      "##´": 1121,
      "##ﻌ": 1122,
      "##ﻘ": 1123,
      "##ﻞ": 1124,
      "##👍": 1125,
      "##➖": 1126,
      "##😪": 1127,
      "##𝐍": 1128,
      "##𝐋": 1129,
      "##𝐘": 1130,
      "##💜": 1131,
      "##ȼ": 1132,
      "##🥊": 1133,
      "##ᅣ": 1134,
      "##🚨": 1135,
      "##🌪": 1136,
      "##♥": 1137,
      "##an": 1138,
      "##er": 1139,
      "##en": 1140,
      "##la": 1141,
      "##ar": 1142,
      "##ang": 1143,
      "##at": 1144,
      "##ak": 1145,
      "##ah": 1146,
      "##in": 1147,
      "##em": 1148,
      "##as": 1149,
      "di": 1150,
      "##kan": 1151,
      "##da": 1152,
      "##am": 1153,
      "##un": 1154,
      "##al": 1155,
      "se": 1156,
      "##eng": 1157,
      "##tu": 1158,
      "yang": 1159,
      "ke": 1160,
      "##ala": 1161,
      "##ya": 1162,
      "##ti": 1163,
      "dan": 1164,
      "##on": 1165,
      "##si": 1166,
      "ber": 1167,
      "##ai": 1168,
      "##ur": 1169,
      "##li": 1170,
      "##di": 1171,
      "##ta": 1172,
      "men": 1173,
      "##ing": 1174,
      "##ada": 1175,
      "##ela": 1176,
      "##es": 1177,
      "##or": 1178,
      "in": 1179,
      "per": 1180,
      "##ag": 1181,
      "##le": 1182,
      "##ap": 1183,
      "##ku": 1184,
      "##ari": 1185,
      "mem": 1186,
      "ter": 1187,
      "##us": 1188,
      "##ek": 1189,
      "th": 1190,
      "##um": 1191,
      "##ara": 1192,
      "##alam": 1193,
      "##lah": 1194,
      "##akan": 1195,
      "##id": 1196,
      "##el": 1197,
      "##ja": 1198,
      "##is": 1199,
      "##bu": 1200,
      "an": 1201,
      "meng": 1202,
      "##ir": 1203,
      "un": 1204,
      "dalam": 1205,
      "##ab": 1206,
      "##eri": 1207,
      "##tuk": 1208,
      "##uk": 1209,
      "##engan": 1210,
      "##aw": 1211,
      "pen": 1212,
      "##ad": 1213,
      "the": 1214,
      "##ul": 1215,
      "dengan": 1216,
      "##it": 1217,
      "##il": 1218,
      "##nya": 1219,
      "##ung": 1220,
      "##ik": 1221,
      "ini": 1222,
      "##om": 1223,
      "##eg": 1224,
      "##ed": 1225,
      "##ent": 1226,
      "##pada": 1227,
      "##leh": 1228,
      "##ga": 1229,
      "##atan": 1230,
      "##ama": 1231,
      "untuk": 1232,
      "##eb": 1233,
      "mer": 1234,
      "##ut": 1235,
      "##ati": 1236,
      "seb": 1237,
      "ada": 1238,
      "##angan": 1239,
      "##ri": 1240,
      "##ro": 1241,
      "##asa": 1242,
      "##aj": 1243,
      "##up": 1244,
      "##agi": 1245,
      "##emb": 1246,
      "##asi": 1247,
      "dari": 1248,
      "##im": 1249,
      "##aan": 1250,
      "##aya": 1251,
      "of": 1252,
      "##uh": 1253,
      "##per": 1254,
      "##et": 1255,
      "##00": 1256,
      "##ana": 1257,
      "##ud": 1258,
      "##sia": 1259,
      "##aran": 1260,
      "##se": 1261,
      "##uan": 1262,
      "peng": 1263,
      "##lam": 1264,
      "itu": 1265,
      "ker": 1266,
      "##eli": 1267,
      "pada": 1268,
      "##and": 1269,
      "##lu": 1270,
      "##ac": 1271,
      "memb": 1272,
      "##alah": 1273,
      "##ih": 1274,
      "##agai": 1275,
      "and": 1276,
      "or": 1277,
      "##idak": 1278,
      "kepada": 1279,
      "Per": 1280,
      "tidak": 1281,
      "##ita": 1282,
      "to": 1283,
      "##elah": 1284,
      "##ula": 1285,
      "##ain": 1286,
      "##amp": 1287,
      "tah": 1288,
      "##pat": 1289,
      "##ian": 1290,
      "##ua": 1291,
      "al": 1292,
      "##kat": 1293,
      "##ol": 1294,
      "ju": 1295,
      "aku": 1296,
      "##atu": 1297,
      "##ok": 1298,
      "sem": 1299,
      "##ali": 1300,
      "In": 1301,
      "tak": 1302,
      "Is": 1303,
      "dia": 1304,
      "##ub": 1305,
      "bah": 1306,
      "##ter": 1307,
      "bu": 1308,
      "##re": 1309,
      "##eka": 1310,
      "##ila": 1311,
      "##aja": 1312,
      "oleh": 1313,
      "is": 1314,
      "##tan": 1315,
      "##ong": 1316,
      "adalah": 1317,
      "##alan": 1318,
      "##gi": 1319,
      "##au": 1320,
      "orang": 1321,
      "akan": 1322,
      "meny": 1323,
      "##ay": 1324,
      "telah": 1325,
      "##ep": 1326,
      "##oh": 1327,
      "##alay": 1328,
      "pro": 1329,
      "mas": 1330,
      "##elaj": 1331,
      "tu": 1332,
      "##ili": 1333,
      "20": 1334,
      "##adi": 1335,
      "##oleh": 1336,
      "##ic": 1337,
      "sek": 1338,
      "kita": 1339,
      "Malay": 1340,
      "##san": 1341,
      "juga": 1342,
      "##anya": 1343,
      "mereka": 1344,
      "neg": 1345,
      "##ec": 1346,
      "##tau": 1347,
      "as": 1348,
      "##AN": 1349,
      "bagi": 1350,
      "ap": 1351,
      "Islam": 1352,
      "19": 1353,
      "##tik": 1354,
      "##ahan": 1355,
      "sebagai": 1356,
      "##ata": 1357,
      "Malaysia": 1358,
      "tahun": 1359,
      "##amb": 1360,
      "atau": 1361,
      "##ation": 1362,
      "##os": 1363,
      "daripada": 1364,
      "##any": 1365,
      "201": 1366,
      "kem": 1367,
      "##ot": 1368,
      "##gun": 1369,
      "##han": 1370,
      "pemb": 1371,
      "##tr": 1372,
      "pem": 1373,
      "##upakan": 1374,
      "ser": 1375,
      "Th": 1376,
      "merupakan": 1377,
      "##but": 1378,
      "##jadi": 1379,
      "saya": 1380,
      "##tara": 1381,
      "##asan": 1382,
      "boleh": 1383,
      "satu": 1384,
      "mak": 1385,
      "ak": 1386,
      "Pen": 1387,
      "te": 1388,
      "##od": 1389,
      "##arkan": 1390,
      "berk": 1391,
      "##awa": 1392,
      "mela": 1393,
      "##ew": 1394,
      "##ebih": 1395,
      "##buah": 1396,
      "ni": 1397,
      "##apa": 1398,
      "lebih": 1399,
      "##ce": 1400,
      "dap": 1401,
      "Al": 1402,
      "##angs": 1403,
      "##end": 1404,
      "negara": 1405,
      "so": 1406,
      "dib": 1407,
      "##af": 1408,
      "##tion": 1409,
      "sebuah": 1410,
      "##tak": 1411,
      "##elajar": 1412,
      "be": 1413,
      "##ump": 1414,
      "kes": 1415,
      "##ver": 1416,
      "##ia": 1417,
      "##yat": 1418,
      "lain": 1419,
      "##perti": 1420,
      "nak": 1421,
      "##ind": 1422,
      "##angk": 1423,
      "##dikan": 1424,
      "##lis": 1425,
      "dapat": 1426,
      "##aik": 1427,
      "##man": 1428,
      "##orang": 1429,
      "##emp": 1430,
      "po": 1431,
      "menjadi": 1432,
      "##dapat": 1433,
      "##unya": 1434,
      "200": 1435,
      "sen": 1436,
      "##ajaan": 1437,
      "##adap": 1438,
      "ag": 1439,
      "##angg": 1440,
      "##ch": 1441,
      "##anyak": 1442,
      "##olah": 1443,
      "si": 1444,
      "sec": 1445,
      "seperti": 1446,
      "dis": 1447,
      "##eliau": 1448,
      "##uj": 1449,
      "##aman": 1450,
      "##sebut": 1451,
      "##ini": 1452,
      "##yar": 1453,
      "con": 1454,
      "at": 1455,
      "man": 1456,
      "An": 1457,
      "##ajian": 1458,
      "##ve": 1459,
      "##tap": 1460,
      "##iran": 1461,
      "##anc": 1462,
      "##tem": 1463,
      "dik": 1464,
      "##ni": 1465,
      "##uru": 1466,
      "##elak": 1467,
      "##gunakan": 1468,
      "##ib": 1469,
      "##ukan": 1470,
      "##anj": 1471,
      "##hadap": 1472,
      "lagi": 1473,
      "##aru": 1474,
      "for": 1475,
      "##ina": 1476,
      "##iku": 1477,
      "##ow": 1478,
      "tersebut": 1479,
      "keb": 1480,
      "perk": 1481,
      "##ran": 1482,
      "secara": 1483,
      "##ulan": 1484,
      "apa": 1485,
      "##ci": 1486,
      "The": 1487,
      "ialah": 1488,
      "kaw": 1489,
      "##angkan": 1490,
      "##ami": 1491,
      "Ke": 1492,
      "##tor": 1493,
      "##ly": 1494,
      "memp": 1495,
      "kerana": 1496,
      "##uran": 1497,
      "on": 1498,
      "##tama": 1499,
      "##mp": 1500,
      "bers": 1501,
      "##ungan": 1502,
      "mana": 1503,
      "##iti": 1504,
      "pelajar": 1505,
      "Peng": 1506,
      "su": 1507,
      "##th": 1508,
      "##gan": 1509,
      "##didikan": 1510,
      "##yah": 1511,
      "hari": 1512,
      "pel": 1513,
      "##akat": 1514,
      "##mat": 1515,
      "##yu": 1516,
      "antara": 1517,
      "##tif": 1518,
      "##ers": 1519,
      "##enteri": 1520,
      "##ingkat": 1521,
      "##hat": 1522,
      "##urut": 1523,
      "peny": 1524,
      "##diri": 1525,
      "kom": 1526,
      "ku": 1527,
      "re": 1528,
      "pas": 1529,
      "bahawa": 1530,
      "##op": 1531,
      "##aitu": 1532,
      "me": 1533,
      "##letak": 1534,
      "sama": 1535,
      "ben": 1536,
      "##anan": 1537,
      "##unan": 1538,
      "pun": 1539,
      "Se": 1540,
      "##gr": 1541,
      "##su": 1542,
      "##gh": 1543,
      "bukan": 1544,
      "##ingg": 1545,
      "dah": 1546,
      "that": 1547,
      "ken": 1548,
      "iaitu": 1549,
      "masa": 1550,
      "min": 1551,
      "kep": 1552,
      "memberi": 1553,
      "serta": 1554,
      "##alau": 1555,
      "##dang": 1556,
      "##laku": 1557,
      "##ingga": 1558,
      "dua": 1559,
      "##api": 1560,
      "perlu": 1561,
      "Mela": 1562,
      "##esar": 1563,
      "har": 1564,
      "##ma": 1565,
      "semua": 1566,
      "##pas": 1567,
      "##elum": 1568,
      "menc": 1569,
      "##int": 1570,
      "kon": 1571,
      "anak": 1572,
      "##udah": 1573,
      "##olo": 1574,
      "##dia": 1575,
      "##ER": 1576,
      "##ant": 1577,
      "##uc": 1578,
      "berb": 1579,
      "##unyai": 1580,
      "##arah": 1581,
      "ti": 1582,
      "menj": 1583,
      "pr": 1584,
      "terhadap": 1585,
      "##ess": 1586,
      "terletak": 1587,
      "mempunyai": 1588,
      "##uruh": 1589,
      "##est": 1590,
      "##hir": 1591,
      "##elajaran": 1592,
      "##imp": 1593,
      "Ch": 1594,
      "tan": 1595,
      "Ker": 1596,
      "##asih": 1597,
      "beb": 1598,
      "Men": 1599,
      "##az": 1600,
      "##erah": 1601,
      "##ting": 1602,
      "Ab": 1603,
      "kec": 1604,
      "aw": 1605,
      "beliau": 1606,
      "##atkan": 1607,
      "##tiv": 1608,
      "Di": 1609,
      "##ihak": 1610,
      "##lum": 1611,
      "##asil": 1612,
      "##yarakat": 1613,
      "Melayu": 1614,
      "##uku": 1615,
      "Pro": 1616,
      "banyak": 1617,
      "##ts": 1618,
      "kata": 1619,
      "Ber": 1620,
      "kan": 1621,
      "wh": 1622,
      "##arang": 1623,
      "kerajaan": 1624,
      "en": 1625,
      "tetap": 1626,
      "am": 1627,
      "Kem": 1628,
      "##one": 1629,
      "Ter": 1630,
      "##idup": 1631,
      "mur": 1632,
      "us": 1633,
      "##antu": 1634,
      "##mas": 1635,
      "dit": 1636,
      "kawasan": 1637,
      "##lui": 1638,
      "tent": 1639,
      "##yari": 1640,
      "kerja": 1641,
      "##acam": 1642,
      "ar": 1643,
      "##buat": 1644,
      "kur": 1645,
      "##onal": 1646,
      "baik": 1647,
      "##usan": 1648,
      "guru": 1649,
      "atas": 1650,
      "##ilik": 1651,
      "##aikan": 1652,
      "diper": 1653,
      "ked": 1654,
      "res": 1655,
      "##inya": 1656,
      "##aian": 1657,
      "ab": 1658,
      "Pada": 1659,
      "seorang": 1660,
      "Sek": 1661,
      "dip": 1662,
      "##umah": 1663,
      "pers": 1664,
      "##ear": 1665,
      "sekolah": 1666,
      "pihak": 1667,
      "mengh": 1668,
      "##for": 1669,
      "##apan": 1670,
      "##dik": 1671,
      "##mad": 1672,
      "##entu": 1673,
      "ia": 1674,
      "##edah": 1675,
      "##inan": 1676,
      "##lak": 1677,
      "##aha": 1678,
      "##usia": 1679,
      "##aji": 1680,
      "##unj": 1681,
      "terb": 1682,
      "##erapa": 1683,
      "##tika": 1684,
      "##ment": 1685,
      "macam": 1686,
      "##angat": 1687,
      "##lepas": 1688,
      "masyarakat": 1689,
      "ka": 1690,
      "##ere": 1691,
      "kajian": 1692,
      "pula": 1693,
      "Dalam": 1694,
      "##gram": 1695,
      "pend": 1696,
      "##usi": 1697,
      "##lim": 1698,
      "##onom": 1699,
      "Ind": 1700,
      "tem": 1701,
      "##uar": 1702,
      "##ob": 1703,
      "##umb": 1704,
      "##atanya": 1705,
      "Neg": 1706,
      "Sh": 1707,
      "sah": 1708,
      "st": 1709,
      "##ingan": 1710,
      "##ith": 1711,
      "##den": 1712,
      "berkat": 1713,
      "baru": 1714,
      "##era": 1715,
      "bahasa": 1716,
      "##upun": 1717,
      "##aga": 1718,
      "##inggi": 1719,
      "##ka": 1720,
      "berkata": 1721,
      "buat": 1722,
      "##amai": 1723,
      "##ambil": 1724,
      "##tikan": 1725,
      "melalui": 1726,
      "sej": 1727,
      "memper": 1728,
      "##wa": 1729,
      "##ses": 1730,
      "mengen": 1731,
      "##ahu": 1732,
      "bi": 1733,
      "rumah": 1734,
      "murid": 1735,
      "##agian": 1736,
      "com": 1737,
      "##alkan": 1738,
      "199": 1739,
      "ek": 1740,
      "Ar": 1741,
      "##ongan": 1742,
      "Allah": 1743,
      "##utu": 1744,
      "beberapa": 1745,
      "##ologi": 1746,
      "##ilai": 1747,
      "##ip": 1748,
      "##sis": 1749,
      "kh": 1750,
      "par": 1751,
      "seh": 1752,
      "de": 1753,
      "##versi": 1754,
      "##our": 1755,
      "berm": 1756,
      "kelu": 1757,
      "##tiap": 1758,
      "Sem": 1759,
      "##tua": 1760,
      "##ust": 1761,
      "##andar": 1762,
      "##engah": 1763,
      "negeri": 1764,
      "kalau": 1765,
      "##nah": 1766,
      "##eker": 1767,
      "##angunan": 1768,
      "samp": 1769,
      "Moh": 1770,
      "##alu": 1771,
      "sesu": 1772,
      "##unia": 1773,
      "##ual": 1774,
      "##tur": 1775,
      "sebab": 1776,
      "Bah": 1777,
      "hanya": 1778,
      "menggunakan": 1779,
      "tetapi": 1780,
      "##iz": 1781,
      "perb": 1782,
      "##jek": 1783,
      "berp": 1784,
      "##ukkan": 1785,
      "##ika": 1786,
      "##angsa": 1787,
      "##lm": 1788,
      "##arat": 1789,
      "##ikut": 1790,
      "Un": 1791,
      "masalah": 1792,
      "##isi": 1793,
      "tapi": 1794,
      "diri": 1795,
      "isu": 1796,
      "besar": 1797,
      "##awah": 1798,
      "##uli": 1799,
      "##gg": 1800,
      "jadi": 1801,
      "meli": 1802,
      "with": 1803,
      "pe": 1804,
      "##abi": 1805,
      "ex": 1806,
      "##umlah": 1807,
      "##lan": 1808,
      "##akyat": 1809,
      "sela": 1810,
      "poli": 1811,
      "ad": 1812,
      "pendidikan": 1813,
      "##elas": 1814,
      "##ekn": 1815,
      "##alik": 1816,
      "##askan": 1817,
      "##hli": 1818,
      "##bagai": 1819,
      "##elan": 1820,
      "##ty": 1821,
      "##tud": 1822,
      "##istem": 1823,
      "##ingk": 1824,
      "Am": 1825,
      "sebelum": 1826,
      "As": 1827,
      "Abd": 1828,
      "##abila": 1829,
      "katanya": 1830,
      "##ensi": 1831,
      "keluar": 1832,
      "##pon": 1833,
      "sendiri": 1834,
      "##ov": 1835,
      "tentang": 1836,
      "##dap": 1837,
      "##ampung": 1838,
      "##udi": 1839,
      "##ota": 1840,
      "masih": 1841,
      "ins": 1842,
      "are": 1843,
      "##ff": 1844,
      "sep": 1845,
      "bert": 1846,
      "mendapat": 1847,
      "Ku": 1848,
      "##ahiran": 1849,
      "##onomi": 1850,
      "##egi": 1851,
      "##iri": 1852,
      "Sela": 1853,
      "digunakan": 1854,
      "berh": 1855,
      "agama": 1856,
      "setiap": 1857,
      "##ekerja": 1858,
      "##ebab": 1859,
      "tr": 1860,
      "Ap": 1861,
      "##rom": 1862,
      "##AT": 1863,
      "##ira": 1864,
      "kat": 1865,
      "##ungk": 1866,
      "##matan": 1867,
      "makan": 1868,
      "sangat": 1869,
      "Kerajaan": 1870,
      "##ach": 1871,
      "##jaya": 1872,
      "ketika": 1873,
      "##EN": 1874,
      "##yarikat": 1875,
      "ac": 1876,
      "tinggi": 1877,
      "RM": 1878,
      "##006": 1879,
      "##ity": 1880,
      "sh": 1881,
      "bawah": 1882,
      "##ulu": 1883,
      "10": 1884,
      "la": 1885,
      "##onesia": 1886,
      "##aerah": 1887,
      "Menteri": 1888,
      "##masuk": 1889,
      "Keb": 1890,
      "sel": 1891,
      "##sep": 1892,
      "##imb": 1893,
      "##me": 1894,
      "selepas": 1895,
      "sudah": 1896,
      "manusia": 1897,
      "berd": 1898,
      "termasuk": 1899,
      "Aku": 1900,
      "##av": 1901,
      "##abatan": 1902,
      "pertama": 1903,
      "##duc": 1904,
      "##enterian": 1905,
      "##ill": 1906,
      "##angsaan": 1907,
      "tempat": 1908,
      "##uduk": 1909,
      "##tic": 1910,
      "##og": 1911,
      "mend": 1912,
      "##amun": 1913,
      "##tern": 1914,
      "keh": 1915,
      "Indonesia": 1916,
      "##idang": 1917,
      "##unjukkan": 1918,
      "##und": 1919,
      "##upaya": 1920,
      "was": 1921,
      "##tiviti": 1922,
      "Dat": 1923,
      "undang": 1924,
      "##ence": 1925,
      "##aca": 1926,
      "##aks": 1927,
      "##umpulan": 1928,
      "##aling": 1929,
      "##indakan": 1930,
      "pelbagai": 1931,
      "##oc": 1932,
      "dunia": 1933,
      "##AR": 1934,
      "##asarkan": 1935,
      "##erima": 1936,
      "##vid": 1937,
      "##na": 1938,
      "Uni": 1939,
      "dij": 1940,
      "##ate": 1941,
      "##te": 1942,
      "##uka": 1943,
      "##AL": 1944,
      "pembelajaran": 1945,
      "##sanakan": 1946,
      "##atakan": 1947,
      "program": 1948,
      "Beliau": 1949,
      "temp": 1950,
      "##ra": 1951,
      "kedua": 1952,
      "Pendidikan": 1953,
      "##por": 1954,
      "kami": 1955,
      "tahu": 1956,
      "##ez": 1957,
      "salah": 1958,
      "dim": 1959,
      "##lmu": 1960,
      "dem": 1961,
      "##jaw": 1962,
      "##ajaran": 1963,
      "##asar": 1964,
      "allah": 1965,
      "##ou": 1966,
      "nama": 1967,
      "diberi": 1968,
      "##pek": 1969,
      "bersama": 1970,
      "Ak": 1971,
      "perkara": 1972,
      "Mus": 1973,
      "##ori": 1974,
      "mel": 1975,
      "bila": 1976,
      "##atif": 1977,
      "##bat": 1978,
      "komun": 1979,
      "So": 1980,
      "Yang": 1981,
      "utama": 1982,
      "##ju": 1983,
      "##atang": 1984,
      "Seb": 1985,
      "sistem": 1986,
      "##ational": 1987,
      "rakyat": 1988,
      "##alangan": 1989,
      "sehingga": 1990,
      "apabila": 1991,
      "berlaku": 1992,
      "turut": 1993,
      "##AH": 1994,
      "##pa": 1995,
      "##enar": 1996,
      "##mi": 1997,
      "##usnya": 1998,
      "Abdul": 1999,
      "kad": 2000,
      "Ia": 2001,
      "tiga": 2002,
      "not": 2003,
      "##lek": 2004,
      "##de": 2005,
      "terdapat": 2006,
      "##ebabkan": 2007,
      "##if": 2008,
      "##atus": 2009,
      "##ungg": 2010,
      "##las": 2011,
      "##AS": 2012,
      "penting": 2013,
      "##awatan": 2014,
      "hidup": 2015,
      "##hid": 2016,
      "cont": 2017,
      "##ujud": 2018,
      "membuat": 2019,
      "str": 2020,
      "Me": 2021,
      "Sekolah": 2022,
      "##ents": 2023,
      "##lat": 2024,
      "menunjukkan": 2025,
      "maklum": 2026,
      "##aitan": 2027,
      "Universi": 2028,
      "##lem": 2029,
      "Ini": 2030,
      "##anding": 2031,
      "##titu": 2032,
      "Mah": 2033,
      "##inc": 2034,
      "meningkat": 2035,
      "Man": 2036,
      "##igh": 2037,
      "pernah": 2038,
      "Saya": 2039,
      "##ammad": 2040,
      "Pemb": 2041,
      "pak": 2042,
      "jen": 2043,
      "mes": 2044,
      "##sial": 2045,
      "kau": 2046,
      "sesuatu": 2047,
      "em": 2048,
      "from": 2049,
      "##ev": 2050,
      "##ubungan": 2051,
      "proses": 2052,
      "mengenai": 2053,
      "##tis": 2054,
      "##ahkan": 2055,
      "it": 2056,
      "sahaja": 2057,
      "##elaki": 2058,
      "para": 2059,
      "kek": 2060,
      "##udian": 2061,
      "ilmu": 2062,
      "Par": 2063,
      "##uhan": 2064,
      "##adan": 2065,
      "um": 2066,
      "##akah": 2067,
      "##ore": 2068,
      "terus": 2069,
      "kemahiran": 2070,
      "daerah": 2071,
      "dir": 2072,
      "##ich": 2073,
      "semasa": 2074,
      "bulan": 2075,
      "Kh": 2076,
      "Kuala": 2077,
      "##ej": 2078,
      "tim": 2079,
      "##der": 2080,
      "Muh": 2081,
      "nilai": 2082,
      "Kementerian": 2083,
      "##buhan": 2084,
      "##ine": 2085,
      "##lik": 2086,
      "##ail": 2087,
      "penggun": 2088,
      "ahli": 2089,
      "indi": 2090,
      "Mas": 2091,
      "sebanyak": 2092,
      "##akit": 2093,
      "##ous": 2094,
      "##alaupun": 2095,
      "##ard": 2096,
      "##ima": 2097,
      "##ge": 2098,
      "##ani": 2099,
      "lah": 2100,
      "##umber": 2101,
      "kali": 2102,
      "##untu": 2103,
      "maj": 2104,
      "mu": 2105,
      "set": 2106,
      "##alankan": 2107,
      "##juan": 2108,
      "ekonomi": 2109,
      "##form": 2110,
      "18": 2111,
      "##ilayah": 2112,
      "wak": 2113,
      "##ont": 2114,
      "##iliki": 2115,
      "lelaki": 2116,
      "wor": 2117,
      "hingga": 2118,
      "kanak": 2119,
      "juta": 2120,
      "##engar": 2121,
      "##daya": 2122,
      "mener": 2123,
      "sekali": 2124,
      "mod": 2125,
      "En": 2126,
      "ayat": 2127,
      "pengajaran": 2128,
      "mula": 2129,
      "Datuk": 2130,
      "sp": 2131,
      "mengambil": 2132,
      "kurang": 2133,
      "##ember": 2134,
      "diken": 2135,
      "##tul": 2136,
      "lalu": 2137,
      "##anjang": 2138,
      "##ekat": 2139,
      "##ks": 2140,
      "ibu": 2141,
      "##adaan": 2142,
      "akhir": 2143,
      "##lama": 2144,
      "##ungkin": 2145,
      "##tar": 2146,
      "sini": 2147,
      "##qu": 2148,
      "luar": 2149,
      "198": 2150,
      "do": 2151,
      "terk": 2152,
      "##omb": 2153,
      "jumlah": 2154,
      "##ampu": 2155,
      "##ilihan": 2156,
      "berken": 2157,
      "##inta": 2158,
      "ind": 2159,
      "Ah": 2160,
      "cara": 2161,
      "##buh": 2162,
      "air": 2163,
      "hati": 2164,
      "##lakukan": 2165,
      "12": 2166,
      "##ilem": 2167,
      "##jawab": 2168,
      "aktiviti": 2169,
      "bidang": 2170,
      "##usat": 2171,
      "dih": 2172,
      "ing": 2173,
      "##eks": 2174,
      "Az": 2175,
      "##ted": 2176,
      "##amad": 2177,
      "##anita": 2178,
      "kumpulan": 2179,
      "##uang": 2180,
      "imp": 2181,
      "memas": 2182,
      "rasa": 2183,
      "pes": 2184,
      "##endah": 2185,
      "Ib": 2186,
      "membantu": 2187,
      "stud": 2188,
      "tahap": 2189,
      "bandar": 2190,
      "ch": 2191,
      "##entuk": 2192,
      "15": 2193,
      "dilakukan": 2194,
      "sub": 2195,
      "semula": 2196,
      "##ug": 2197,
      "bentuk": 2198,
      "mata": 2199,
      "##agaan": 2200,
      "mengg": 2201,
      "Mer": 2202,
      "respon": 2203,
      "##erita": 2204,
      "##IN": 2205,
      "mat": 2206,
      "##uruhan": 2207,
      "kar": 2208,
      "politik": 2209,
      "##din": 2210,
      "##akap": 2211,
      "berkaitan": 2212,
      "Meng": 2213,
      "##so": 2214,
      "Kes": 2215,
      "Bahasa": 2216,
      "perm": 2217,
      "Negeri": 2218,
      "this": 2219,
      "awal": 2220,
      "11": 2221,
      "berkenaan": 2222,
      "paling": 2223,
      "tekn": 2224,
      "##ustri": 2225,
      "tindakan": 2226,
      "##unc": 2227,
      "jika": 2228,
      "kena": 2229,
      "Pem": 2230,
      "gol": 2231,
      "Kebangsaan": 2232,
      "##uskan": 2233,
      "sur": 2234,
      "usaha": 2235,
      "##angka": 2236,
      "##kuasa": 2237,
      "##aat": 2238,
      "##led": 2239,
      "hasil": 2240,
      "sampai": 2241,
      "##aki": 2242,
      "##eh": 2243,
      "maka": 2244,
      "peringkat": 2245,
      "supaya": 2246,
      "ramai": 2247,
      "pela": 2248,
      "##uhi": 2249,
      "sk": 2250,
      "seg": 2251,
      "ha": 2252,
      "his": 2253,
      "##wan": 2254,
      "syarikat": 2255,
      "##asional": 2256,
      "##ons": 2257,
      "##ola": 2258,
      "##amu": 2259,
      "##teri": 2260,
      "##enc": 2261,
      "hak": 2262,
      "dep": 2263,
      "masuk": 2264,
      "##ajar": 2265,
      "masing": 2266,
      "##etah": 2267,
      "kaedah": 2268,
      "bin": 2269,
      "sese": 2270,
      "kira": 2271,
      "kalangan": 2272,
      "##edi": 2273,
      "Sy": 2274,
      "ras": 2275,
      "int": 2276,
      "has": 2277,
      "mampu": 2278,
      "##tions": 2279,
      "tanpa": 2280,
      "##IS": 2281,
      "fak": 2282,
      "Peny": 2283,
      "individ": 2284,
      "mah": 2285,
      "teng": 2286,
      "Negara": 2287,
      "penc": 2288,
      "lap": 2289,
      "sy": 2290,
      "##apai": 2291,
      "jalan": 2292,
      "Mohd": 2293,
      "din": 2294,
      "kemudian": 2295,
      "nabi": 2296,
      "pembangunan": 2297,
      "##ambah": 2298,
      "betul": 2299,
      "memiliki": 2300,
      "keper": 2301,
      "14": 2302,
      "##caya": 2303,
      "bagai": 2304,
      "pand": 2305,
      "pekerja": 2306,
      "Muslim": 2307,
      "##ning": 2308,
      "##rah": 2309,
      "ob": 2310,
      "##oul": 2311,
      "##ilan": 2312,
      "Islamic": 2313,
      "##umpur": 2314,
      "sosial": 2315,
      "menyatakan": 2316,
      "##anggung": 2317,
      "mungkin": 2318,
      "Menurut": 2319,
      "##angkah": 2320,
      "##esi": 2321,
      "##utan": 2322,
      "balik": 2323,
      "mengikut": 2324,
      "Ag": 2325,
      "Mak": 2326,
      "war": 2327,
      "berdasarkan": 2328,
      "Pr": 2329,
      "##ains": 2330,
      "kini": 2331,
      "Dr": 2332,
      "PER": 2333,
      "##tih": 2334,
      "##kukan": 2335,
      "##hidmatan": 2336,
      "##osi": 2337,
      "##ulis": 2338,
      "hal": 2339,
      "##ena": 2340,
      "sebenar": 2341,
      "##erint": 2342,
      "Te": 2343,
      "##AM": 2344,
      "their": 2345,
      "datang": 2346,
      "##elu": 2347,
      "##empuan": 2348,
      "terp": 2349,
      "##ilih": 2350,
      "##akala": 2351,
      "##epas": 2352,
      "Tah": 2353,
      "##uas": 2354,
      "##ris": 2355,
      "##aliti": 2356,
      "##alis": 2357,
      "##amah": 2358,
      "13": 2359,
      "Lumpur": 2360,
      "##iv": 2361,
      "##abah": 2362,
      "can": 2363,
      "he": 2364,
      "##omp": 2365,
      "##elidikan": 2366,
      "memang": 2367,
      "##mana": 2368,
      "parti": 2369,
      "##akar": 2370,
      "meningkatkan": 2371,
      "melakukan": 2372,
      "000": 2373,
      "kampung": 2374,
      "keluarga": 2375,
      "##ond": 2376,
      "##atian": 2377,
      "##ikir": 2378,
      "##ould": 2379,
      "##st": 2380,
      "Muhammad": 2381,
      "maklumat": 2382,
      "##seku": 2383,
      "##eles": 2384,
      "buah": 2385,
      "aspek": 2386,
      "##amanya": 2387,
      "##itar": 2388,
      "wanita": 2389,
      "##resi": 2390,
      "##akin": 2391,
      "sik": 2392,
      "Maj": 2393,
      "##egitu": 2394,
      "keadaan": 2395,
      "##ally": 2396,
      "##sih": 2397,
      "##min": 2398,
      "memberikan": 2399,
      "dekat": 2400,
      "##utusan": 2401,
      "##arik": 2402,
      "##uman": 2403,
      "##EM": 2404,
      "##ikan": 2405,
      "##eter": 2406,
      "##lic": 2407,
      "which": 2408,
      "kecil": 2409,
      "##ikasi": 2410,
      "##aksi": 2411,
      "berada": 2412,
      "lama": 2413,
      "##anti": 2414,
      "Jabatan": 2415,
      "##lukan": 2416,
      "perempuan": 2417,
      "##dana": 2418,
      "benda": 2419,
      "Sep": 2420,
      "Tan": 2421,
      "##insi": 2422,
      "je": 2423,
      "Ameri": 2424,
      "Selain": 2425,
      "##wak": 2426,
      "##elang": 2427,
      "Universiti": 2428,
      "hadi": 2429,
      "comp": 2430,
      "berj": 2431,
      "kew": 2432,
      "organ": 2433,
      "inter": 2434,
      "##leb": 2435,
      "wilayah": 2436,
      "beras": 2437,
      "jenis": 2438,
      "pert": 2439,
      "##gn": 2440,
      "tanah": 2441,
      "have": 2442,
      "##oran": 2443,
      "##embangan": 2444,
      "##sanaan": 2445,
      "golongan": 2446,
      "##etahuan": 2447,
      "Mar": 2448,
      "Seri": 2449,
      "##fat": 2450,
      "khus": 2451,
      "##ook": 2452,
      "##rip": 2453,
      "Dis": 2454,
      "##urusan": 2455,
      "##ell": 2456,
      "Ka": 2457,
      "all": 2458,
      "menerima": 2459,
      "bahan": 2460,
      "Ahmad": 2461,
      "##apkan": 2462,
      "pelak": 2463,
      "Or": 2464,
      "##all": 2465,
      "pergi": 2466,
      "##tas": 2467,
      "individu": 2468,
      "##AK": 2469,
      "Tuan": 2470,
      "##ey": 2471,
      "tengok": 2472,
      "beli": 2473,
      "bahagian": 2474,
      "##batkan": 2475,
      "Har": 2476,
      "du": 2477,
      "kaum": 2478,
      "30": 2479,
      "##oy": 2480,
      "kamu": 2481,
      "##aku": 2482,
      "##idupan": 2483,
      "##luan": 2484,
      "##angku": 2485,
      "##angsung": 2486,
      "terut": 2487,
      "sus": 2488,
      "##ERI": 2489,
      "sejak": 2490,
      "16": 2491,
      "##dapati": 2492,
      "##ank": 2493,
      "Po": 2494,
      "##ewan": 2495,
      "##lihat": 2496,
      "##ser": 2497,
      "##elop": 2498,
      "##agu": 2499,
      "penggunaan": 2500,
      "berjaya": 2501,
      "##awai": 2502,
      "##ubah": 2503,
      "##engk": 2504,
      "##atihan": 2505,
      "des": 2506,
      "##men": 2507,
      "projek": 2508,
      "##ungi": 2509,
      "angg": 2510,
      "contoh": 2511,
      "Joh": 2512,
      "waktu": 2513,
      "##tuan": 2514,
      "kuasa": 2515,
      "perub": 2516,
      "##ital": 2517,
      "lepas": 2518,
      "##ech": 2519,
      "##ultan": 2520,
      "##rans": 2521,
      "dig": 2522,
      "sumber": 2523,
      "data": 2524,
      "##angi": 2525,
      "##age": 2526,
      "melihat": 2527,
      "##eluruhan": 2528,
      "St": 2529,
      "##jid": 2530,
      "##ef": 2531,
      "cakap": 2532,
      "##ement": 2533,
      "##jah": 2534,
      "Dia": 2535,
      "ala": 2536,
      "Peranc": 2537,
      "##000": 2538,
      "##hi": 2539,
      "##inggal": 2540,
      "peg": 2541,
      "##angun": 2542,
      "2010": 2543,
      "##awan": 2544,
      "##endak": 2545,
      "##sir": 2546,
      "##ilangan": 2547,
      "##eta": 2548,
      "##cip": 2549,
      "Bagi": 2550,
      "hubungan": 2551,
      "Namun": 2552,
      "##tad": 2553,
      "##ome": 2554,
      "agar": 2555,
      "sekarang": 2556,
      "peratus": 2557,
      "##impin": 2558,
      "keti": 2559,
      "##fah": 2560,
      "##entukan": 2561,
      "##sur": 2562,
      "exp": 2563,
      "et": 2564,
      "go": 2565,
      "India": 2566,
      "##ayar": 2567,
      "alam": 2568,
      "Dan": 2569,
      "memastikan": 2570,
      "Ins": 2571,
      "walaupun": 2572,
      "media": 2573,
      "tadi": 2574,
      "##asaan": 2575,
      "penduduk": 2576,
      "Antara": 2577,
      "##buka": 2578,
      "tempoh": 2579,
      "##sus": 2580,
      "Arab": 2581,
      "Ketua": 2582,
      "kehidupan": 2583,
      "menyebabkan": 2584,
      "suatu": 2585,
      "mew": 2586,
      "##ekatan": 2587,
      "Kajian": 2588,
      "##ender": 2589,
      "filem": 2590,
      "langkah": 2591,
      "dilak": 2592,
      "keputusan": 2593,
      "Perk": 2594,
      "197": 2595,
      "bertu": 2596,
      "##ras": 2597,
      "##ary": 2598,
      "##apun": 2599,
      "##ducation": 2600,
      "2014": 2601,
      "malam": 2602,
      "seluruh": 2603,
      "keseluruhan": 2604,
      "Oleh": 2605,
      "17": 2606,
      "##now": 2607,
      "##ther": 2608,
      "##buk": 2609,
      "melibatkan": 2610,
      "##out": 2611,
      "##tab": 2612,
      "##lebih": 2613,
      "dasar": 2614,
      "membawa": 2615,
      "##ost": 2616,
      "##aid": 2617,
      "##aus": 2618,
      "##tian": 2619,
      "bas": 2620,
      "seseorang": 2621,
      "jangan": 2622,
      "##tive": 2623,
      "It": 2624,
      "jelas": 2625,
      "pengetahuan": 2626,
      "diberikan": 2627,
      "will": 2628,
      "##alisis": 2629,
      "mo": 2630,
      "##erta": 2631,
      "##atur": 2632,
      "##alaman": 2633,
      "perkhidmatan": 2634,
      "##ikian": 2635,
      "##ikiran": 2636,
      "jam": 2637,
      "say": 2638,
      "kawan": 2639,
      "##tim": 2640,
      "Si": 2641,
      "##anggungjawab": 2642,
      "awam": 2643,
      "##ura": 2644,
      "##yen": 2645,
      "Mu": 2646,
      "mahu": 2647,
      "gen": 2648,
      "Perdana": 2649,
      "##ahagian": 2650,
      "tiada": 2651,
      "##erb": 2652,
      "dic": 2653,
      "##duk": 2654,
      "rendah": 2655,
      "Amerika": 2656,
      "##als": 2657,
      "##her": 2658,
      "faktor": 2659,
      "##asilkan": 2660,
      "##embali": 2661,
      "mudah": 2662,
      "tert": 2663,
      "empat": 2664,
      "##ujuk": 2665,
      "sedang": 2666,
      "melak": 2667,
      "##perasi": 2668,
      "##EL": 2669,
      "seramai": 2670,
      "##aris": 2671,
      "bantu": 2672,
      "dibuat": 2673,
      "dilaksanakan": 2674,
      "konsep": 2675,
      "harus": 2676,
      "##yataan": 2677,
      "##yak": 2678,
      "selama": 2679,
      "amat": 2680,
      "Mereka": 2681,
      "Pas": 2682,
      "##eo": 2683,
      "##ert": 2684,
      "##ort": 2685,
      "begitu": 2686,
      "kel": 2687,
      "##uari": 2688,
      "berc": 2689,
      "##alahan": 2690,
      "##ld": 2691,
      "ib": 2692,
      "##ukup": 2693,
      "##ahw": 2694,
      "institu": 2695,
      "##sian": 2696,
      "kos": 2697,
      "keperluan": 2698,
      "##inda": 2699,
      "##tadb": 2700,
      "##esan": 2701,
      "yg": 2702,
      "zaman": 2703,
      "##ven": 2704,
      "ide": 2705,
      "##ullah": 2706,
      "did": 2707,
      "##bangsa": 2708,
      "ditu": 2709,
      "mencapai": 2710,
      "komp": 2711,
      "were": 2712,
      "who": 2713,
      "21": 2714,
      "##able": 2715,
      "##AAN": 2716,
      "ayah": 2717,
      "co": 2718,
      "##007": 2719,
      "##gas": 2720,
      "cerita": 2721,
      "##adakan": 2722,
      "belajar": 2723,
      "namun": 2724,
      "##002": 2725,
      "##entara": 2726,
      "sed": 2727,
      "##uba": 2728,
      "Intern": 2729,
      "Perancis": 2730,
      "##pec": 2731,
      "##ingkatan": 2732,
      "##ilang": 2733,
      "Hal": 2734,
      "##asama": 2735,
      "bek": 2736,
      "##fi": 2737,
      "##ated": 2738,
      "##residen": 2739,
      "##ungai": 2740,
      "posi": 2741,
      "##ast": 2742,
      "app": 2743,
      "penj": 2744,
      "ses": 2745,
      "##ampak": 2746,
      "##lamat": 2747,
      "ket": 2748,
      "Untuk": 2749,
      "pemerint": 2750,
      "##ajib": 2751,
      "Nor": 2752,
      "raya": 2753,
      "es": 2754,
      "makanan": 2755,
      "buku": 2756,
      "##adem": 2757,
      "belum": 2758,
      "##earning": 2759,
      "##manapun": 2760,
      "melaksanakan": 2761,
      "Kita": 2762,
      "industri": 2763,
      "##lin": 2764,
      "Tim": 2765,
      "##adual": 2766,
      "##irkan": 2767,
      "##sekutuan": 2768,
      "situ": 2769,
      "##AP": 2770,
      "Dewan": 2771,
      "##20": 2772,
      "##ings": 2773,
      "##jasama": 2774,
      "bermula": 2775,
      "##adah": 2776,
      "perh": 2777,
      "Mem": 2778,
      "uj": 2779,
      "huku": 2780,
      "menjadikan": 2781,
      "gr": 2782,
      "umat": 2783,
      "asas": 2784,
      "biasa": 2785,
      "##uddin": 2786,
      "tengah": 2787,
      "kesan": 2788,
      "Sing": 2789,
      "up": 2790,
      "##dai": 2791,
      "amalan": 2792,
      "berbanding": 2793,
      "sekitar": 2794,
      "Pula": 2795,
      "##TAN": 2796,
      "##etap": 2797,
      "dikenali": 2798,
      "le": 2799,
      "harga": 2800,
      "Quran": 2801,
      "##eza": 2802,
      "##bul": 2803,
      "amb": 2804,
      "senti": 2805,
      "##isa": 2806,
      "##ikal": 2807,
      "##kataan": 2808,
      "##fer": 2809,
      "##rit": 2810,
      "dijalankan": 2811,
      "##tuju": 2812,
      "pet": 2813,
      "##ations": 2814,
      "pasti": 2815,
      "memer": 2816,
      "berikut": 2817,
      "##uri": 2818,
      "dilihat": 2819,
      "ingin": 2820,
      "##mar": 2821,
      "##anggap": 2822,
      "##inar": 2823,
      "##ese": 2824,
      "latihan": 2825,
      "diter": 2826,
      "soalan": 2827,
      "dulu": 2828,
      "##ilion": 2829,
      "##adang": 2830,
      "pasukan": 2831,
      "##iman": 2832,
      "ali": 2833,
      "they": 2834,
      "##sion": 2835,
      "##ancangan": 2836,
      "kap": 2837,
      "Kampung": 2838,
      "aj": 2839,
      "Pulau": 2840,
      "mus": 2841,
      "minta": 2842,
      "##kamah": 2843,
      "kelas": 2844,
      "Ras": 2845,
      "saja": 2846,
      "AS": 2847,
      "know": 2848,
      "prof": 2849,
      "depan": 2850,
      "ten": 2851,
      "##entingan": 2852,
      "kela": 2853,
      "##eluarkan": 2854,
      "sesuai": 2855,
      "Dari": 2856,
      "budaya": 2857,
      "pan": 2858,
      "##ANG": 2859,
      "##kh": 2860,
      "segi": 2861,
      "##araan": 2862,
      "peranan": 2863,
      "also": 2864,
      "##limen": 2865,
      "badan": 2866,
      "mendapatkan": 2867,
      "##ikulum": 2868,
      "##orm": 2869,
      "produk": 2870,
      "196": 2871,
      "##ait": 2872,
      "bilion": 2873,
      "dev": 2874,
      "##isasi": 2875,
      "rem": 2876,
      "anda": 2877,
      "##ord": 2878,
      "##IM": 2879,
      "jabatan": 2880,
      "KE": 2881,
      "##atik": 2882,
      "pop": 2883,
      "##lec": 2884,
      "langsung": 2885,
      "##ubung": 2886,
      "pilihan": 2887,
      "op": 2888,
      "2019": 2889,
      "comm": 2890,
      "China": 2891,
      "##okong": 2892,
      "lima": 2893,
      "##abis": 2894,
      "Ada": 2895,
      "adik": 2896,
      "pengh": 2897,
      "##ediakan": 2898,
      "##ayah": 2899,
      "teknologi": 2900,
      "##ukar": 2901,
      "##akw": 2902,
      "##dapatan": 2903,
      "jaw": 2904,
      "##nal": 2905,
      "##cep": 2906,
      "pandangan": 2907,
      "##enda": 2908,
      "Dengan": 2909,
      "kembali": 2910,
      "##pan": 2911,
      "Cina": 2912,
      "uni": 2913,
      "2009": 2914,
      "##ph": 2915,
      "##udukan": 2916,
      "##AD": 2917,
      "##sihatan": 2918,
      "Ad": 2919,
      "mengur": 2920,
      "##olog": 2921,
      "Sultan": 2922,
      "ne": 2923,
      "umum": 2924,
      "##anyakan": 2925,
      "##gk": 2926,
      "tujuan": 2927,
      "Guru": 2928,
      "Tapi": 2929,
      "##elamatan": 2930,
      "Ali": 2931,
      "tradi": 2932,
      "##alas": 2933,
      "pusat": 2934,
      "kereta": 2935,
      "kadar": 2936,
      "25": 2937,
      "Tahun": 2938,
      "##aq": 2939,
      "##dag": 2940,
      "##iranya": 2941,
      "Tun": 2942,
      "##earch": 2943,
      "Ibn": 2944,
      "anggota": 2945,
      "Barat": 2946,
      "##atuan": 2947,
      "##uhnya": 2948,
      "soci": 2949,
      "responden": 2950,
      "teach": 2951,
      "##AJ": 2952,
      "Pers": 2953,
      "Syarikat": 2954,
      "sentiasa": 2955,
      "##amatan": 2956,
      "berbeza": 2957,
      "pu": 2958,
      "disi": 2959,
      "ciri": 2960,
      "##iba": 2961,
      "demikian": 2962,
      "##row": 2963,
      "2018": 2964,
      "##ry": 2965,
      "perubahan": 2966,
      "berg": 2967,
      "form": 2968,
      "##taran": 2969,
      "##ahami": 2970,
      "Pe": 2971,
      "##ohon": 2972,
      "kont": 2973,
      "perkataan": 2974,
      "##UR": 2975,
      "strat": 2976,
      "##ham": 2977,
      "##impinan": 2978,
      "##erak": 2979,
      "##akhir": 2980,
      "one": 2981,
      "nanti": 2982,
      "##uktur": 2983,
      "##ril": 2984,
      "bag": 2985,
      "##iew": 2986,
      "pin": 2987,
      "##res": 2988,
      "Dar": 2989,
      "Rah": 2990,
      "Raja": 2991,
      "jawatan": 2992,
      "cuba": 2993,
      "manakala": 2994,
      "##llah": 2995,
      "wujud": 2996,
      "pelaksanaan": 2997,
      "im": 2998,
      "##ole": 2999,
      "ur": 3000,
      "##auh": 3001,
      "##UM": 3002,
      "main": 3003,
      "sal": 3004,
      "##ihat": 3005,
      "berse": 3006,
      "Selang": 3007,
      "hendak": 3008,
      "ata": 3009,
      "Persekutuan": 3010,
      "perkembangan": 3011,
      "memen": 3012,
      "sebahagian": 3013,
      "Majlis": 3014,
      "##ajah": 3015,
      "Le": 3016,
      "##uth": 3017,
      "lagu": 3018,
      "##ahui": 3019,
      "bantuan": 3020,
      "Kom": 3021,
      "IP": 3022,
      "pemimpin": 3023,
      "Lap": 3024,
      "##erakan": 3025,
      "##ial": 3026,
      "peluang": 3027,
      "New": 3028,
      "benar": 3029,
      "##UN": 3030,
      "semakin": 3031,
      "fac": 3032,
      "##elopment": 3033,
      "gamb": 3034,
      "PR": 3035,
      "bersi": 3036,
      "ataupun": 3037,
      "tertentu": 3038,
      "tempatan": 3039,
      "Selangor": 3040,
      "mar": 3041,
      "##inaan": 3042,
      "perj": 3043,
      "dil": 3044,
      "sejarah": 3045,
      "##was": 3046,
      "menulis": 3047,
      "##uti": 3048,
      "##rop": 3049,
      "rakan": 3050,
      "fi": 3051,
      "siapa": 3052,
      "##niagaan": 3053,
      "bekerja": 3054,
      "##land": 3055,
      "##uat": 3056,
      "##isme": 3057,
      "suka": 3058,
      "UM": 3059,
      "This": 3060,
      "terdiri": 3061,
      "##ular": 3062,
      "Mat": 3063,
      "segala": 3064,
      "##hadapi": 3065,
      "##gger": 3066,
      "fah": 3067,
      "trans": 3068,
      "##aduan": 3069,
      "##aksa": 3070,
      "kadang": 3071,
      "##ON": 3072,
      "Kep": 3073,
      "menyediakan": 3074,
      "sebenarnya": 3075,
      "Sabah": 3076,
      "semp": 3077,
      "##ampir": 3078,
      "##unt": 3079,
      "##sel": 3080,
      "kej": 3081,
      "##umi": 3082,
      "##elaskan": 3083,
      "Program": 3084,
      "##SI": 3085,
      "semb": 3086,
      "tuan": 3087,
      "pengurusan": 3088,
      "##eligi": 3089,
      "ambil": 3090,
      "gun": 3091,
      "La": 3092,
      "baharu": 3093,
      "Singap": 3094,
      "##hip": 3095,
      "mesti": 3096,
      "##ui": 3097,
      "##enti": 3098,
      "##les": 3099,
      "Jan": 3100,
      "pat": 3101,
      "##tadbiran": 3102,
      "ya": 3103,
      "ri": 3104,
      "no": 3105,
      "##etahui": 3106,
      "##lish": 3107,
      "2012": 3108,
      "##crip": 3109,
      "rela": 3110,
      "berf": 3111,
      "ters": 3112,
      "membaca": 3113,
      "institusi": 3114,
      "##ool": 3115,
      "mis": 3116,
      "kasih": 3117,
      "2015": 3118,
      "##ulang": 3119,
      "##ulti": 3120,
      "##aksud": 3121,
      "Sebagai": 3122,
      "kewangan": 3123,
      "Jun": 3124,
      "tangan": 3125,
      "##amil": 3126,
      "##ern": 3127,
      "##ken": 3128,
      "##ely": 3129,
      "##ten": 3130,
      "##amaan": 3131,
      "##urun": 3132,
      "we": 3133,
      "selain": 3134,
      "International": 3135,
      "He": 3136,
      "##echn": 3137,
      "##tual": 3138,
      "##kah": 3139,
      "##jak": 3140,
      "##we": 3141,
      "sektor": 3142,
      "##sedi": 3143,
      "##lo": 3144,
      "##alon": 3145,
      "kursus": 3146,
      "other": 3147,
      "##inggu": 3148,
      "Ahli": 3149,
      "##port": 3150,
      "perband": 3151,
      "##aud": 3152,
      "##TI": 3153,
      "##ambahan": 3154,
      "##NO": 3155,
      "Res": 3156,
      "##alak": 3157,
      "##awi": 3158,
      "duduk": 3159,
      "##ame": 3160,
      "laut": 3161,
      "bet": 3162,
      "##likasi": 3163,
      "##ggeris": 3164,
      "##uma": 3165,
      "##libat": 3166,
      "MEN": 3167,
      "pelajaran": 3168,
      "##art": 3169,
      "but": 3170,
      "rep": 3171,
      "Tekn": 3172,
      "inc": 3173,
      "Eng": 3174,
      "Jep": 3175,
      "Jer": 3176,
      "##bah": 3177,
      "duit": 3178,
      "met": 3179,
      "##untukan": 3180,
      "pendekatan": 3181,
      "##dal": 3182,
      "##ha": 3183,
      "50": 3184,
      "##urkan": 3185,
      "Sara": 3186,
      "##insip": 3187,
      "##arisan": 3188,
      "bangsa": 3189,
      "Presiden": 3190,
      "Terdapat": 3191,
      "kepentingan": 3192,
      "##enggan": 3193,
      "##ainya": 3194,
      "Asia": 3195,
      "##ca": 3196,
      "its": 3197,
      "masjid": 3198,
      "PEN": 3199,
      "##iah": 3200,
      "##apaian": 3201,
      "Su": 3202,
      "memerlukan": 3203,
      "Mac": 3204,
      "fir": 3205,
      "them": 3206,
      "you": 3207,
      "terlibat": 3208,
      "##ban": 3209,
      "diambil": 3210,
      "Tr": 3211,
      "##lang": 3212,
      "Johor": 3213,
      "had": 3214,
      "2017": 3215,
      "##AW": 3216,
      "tanya": 3217,
      "suami": 3218,
      "bapa": 3219,
      "asal": 3220,
      "##ical": 3221,
      "##ustr": 3222,
      "##lar": 3223,
      "2011": 3224,
      "tentera": 3225,
      "memahami": 3226,
      "##okok": 3227,
      "bec": 3228,
      "##jabat": 3229,
      "ok": 3230,
      "disebabkan": 3231,
      "fo": 3232,
      "menarik": 3233,
      "Bri": 3234,
      "##awal": 3235,
      "students": 3236,
      "kenyataan": 3237,
      "##isah": 3238,
      "Selatan": 3239,
      "##tain": 3240,
      "24": 3241,
      "##cal": 3242,
      "time": 3243,
      "abang": 3244,
      "menjalankan": 3245,
      "##ilaian": 3246,
      "setelah": 3247,
      "membentuk": 3248,
      "Ked": 3249,
      "##angani": 3250,
      "Sec": 3251,
      "Penyelidikan": 3252,
      "##arian": 3253,
      "Aw": 3254,
      "bilik": 3255,
      "Inggeris": 3256,
      "##ect": 3257,
      "##ujudkan": 3258,
      "Im": 3259,
      "##are": 3260,
      "##aruh": 3261,
      "##yarat": 3262,
      "kedudukan": 3263,
      "Parlimen": 3264,
      "##YAAN": 3265,
      "##ki": 3266,
      "2013": 3267,
      "##kaji": 3268,
      "pengalaman": 3269,
      "##elakang": 3270,
      "bay": 3271,
      "Pak": 3272,
      "nampak": 3273,
      "seter": 3274,
      "2016": 3275,
      "##air": 3276,
      "##inggit": 3277,
      "##anjut": 3278,
      "selalu": 3279,
      "kecamatan": 3280,
      "##UAN": 3281,
      "Abu": 3282,
      "bak": 3283,
      "arah": 3284,
      "##enal": 3285,
      "hampir": 3286,
      "ma": 3287,
      "sesi": 3288,
      "##ALA": 3289,
      "##002000": 3290,
      "mati": 3291,
      "khususnya": 3292,
      "cukup": 3293,
      "##mah": 3294,
      "##elantan": 3295,
      "Orang": 3296,
      "Kelantan": 3297,
      "##ose": 3298,
      "there": 3299,
      "##abat": 3300,
      "PERTAN": 3301,
      "panjang": 3302,
      "tiba": 3303,
      "Jepun": 3304,
      "##engg": 3305,
      "perniagaan": 3306,
      "##abar": 3307,
      "##kus": 3308,
      "out": 3309,
      "inf": 3310,
      "sebarang": 3311,
      "gener": 3312,
      "seterusnya": 3313,
      "Pembangunan": 3314,
      "##lob": 3315,
      "195": 3316,
      "##ibat": 3317,
      "learning": 3318,
      "##afi": 3319,
      "lem": 3320,
      "muda": 3321,
      "On": 3322,
      "##ight": 3323,
      "pertu": 3324,
      "sepanjang": 3325,
      "April": 3326,
      "Has": 3327,
      "punya": 3328,
      "Jadual": 3329,
      "mencari": 3330,
      "Jav": 3331,
      "Qur": 3332,
      "menerusi": 3333,
      "laporan": 3334,
      "##etapkan": 3335,
      "terj": 3336,
      "##kut": 3337,
      "tugas": 3338,
      "##usah": 3339,
      "ketiga": 3340,
      "bern": 3341,
      "23": 3342,
      "kebangsaan": 3343,
      "##athir": 3344,
      "Shah": 3345,
      "Jika": 3346,
      "sikap": 3347,
      "sains": 3348,
      "bur": 3349,
      "Sarawak": 3350,
      "##ative": 3351,
      "pemikiran": 3352,
      "##ugh": 3353,
      "##anggil": 3354,
      "ii": 3355,
      "Education": 3356,
      "##ack": 3357,
      "tinggal": 3358,
      "##esen": 3359,
      "Mei": 3360,
      "tol": 3361,
      "wang": 3362,
      "##tical": 3363,
      "##ig": 3364,
      "pri": 3365,
      "ang": 3366,
      "##yan": 3367,
      "polis": 3368,
      "menghasilkan": 3369,
      "desa": 3370,
      "PERTANYAAN": 3371,
      "##ree": 3372,
      "pegawai": 3373,
      "##buhkan": 3374,
      "Ser": 3375,
      "model": 3376,
      "Timur": 3377,
      "UMNO": 3378,
      "pakai": 3379,
      "Mohamad": 3380,
      "##ulullah": 3381,
      "pur": 3382,
      "pekerjaan": 3383,
      "##sid": 3384,
      "##estasi": 3385,
      "sering": 3386,
      "##elesaikan": 3387,
      "##ulisan": 3388,
      "dianggap": 3389,
      "22": 3390,
      "##ans": 3391,
      "No": 3392,
      "##ukai": 3393,
      "sch": 3394,
      "##lit": 3395,
      "##ough": 3396,
      "ringgit": 3397,
      "sup": 3398,
      "##udahan": 3399,
      "Put": 3400,
      "##ited": 3401,
      "##adu": 3402,
      "Seminar": 3403,
      "##ology": 3404,
      "Pusat": 3405,
      "##rat": 3406,
      "Kon": 3407,
      "bagaimana": 3408,
      "barat": 3409,
      "mendapati": 3410,
      "agak": 3411,
      "pengajian": 3412,
      "##ledge": 3413,
      "Tak": 3414,
      "##ikuti": 3415,
      "##awat": 3416,
      "nasi": 3417,
      "##egang": 3418,
      "Cont": 3419,
      "##ork": 3420,
      "habis": 3421,
      "##tanya": 3422,
      "asing": 3423,
      "keselamatan": 3424,
      "##upa": 3425,
      "membina": 3426,
      "Tidak": 3427,
      "##osp": 3428,
      "##ekan": 3429,
      "##ombor": 3430,
      "universi": 3431,
      "Terb": 3432,
      "##gant": 3433,
      "study": 3434,
      "##cript": 3435,
      "Pin": 3436,
      "ujian": 3437,
      "Br": 3438,
      "IS": 3439,
      "tungg": 3440,
      "Singapura": 3441,
      "##ife": 3442,
      "##ility": 3443,
      "##akarta": 3444,
      "##usim": 3445,
      "dikat": 3446,
      "##engganu": 3447,
      "pentadbiran": 3448,
      "2001": 3449,
      "Ek": 3450,
      "Kan": 3451,
      "pemain": 3452,
      "soal": 3453,
      "sifat": 3454,
      "your": 3455,
      "##elanja": 3456,
      "dr": 3457,
      "Sungai": 3458,
      "Set": 3459,
      "Min": 3460,
      "##ikat": 3461,
      "RM1": 3462,
      "Sri": 3463,
      "##erusi": 3464,
      "Buk": 3465,
      "##cc": 3466,
      "##rahim": 3467,
      "##tanian": 3468,
      "##alami": 3469,
      "##antau": 3470,
      "2008": 3471,
      "##adangan": 3472,
      "hukum": 3473,
      "Con": 3474,
      "##asanya": 3475,
      "kuat": 3476,
      "##itan": 3477,
      "##yariah": 3478,
      "pagi": 3479,
      "Iran": 3480,
      "Berh": 3481,
      "Institu": 3482,
      "##aju": 3483,
      "##alian": 3484,
      "Javas": 3485,
      "Javascript": 3486,
      "40": 3487,
      "##okongan": 3488,
      "isteri": 3489,
      "pendapatan": 3490,
      "##entang": 3491,
      "##wasta": 3492,
      "##ike": 3493,
      "terima": 3494,
      "Akta": 3495,
      "peruntukan": 3496,
      "##eriks": 3497,
      "seri": 3498,
      "##syar": 3499,
      "##antai": 3500,
      "pre": 3501,
      "##aturan": 3502,
      "##way": 3503,
      "kitab": 3504,
      "kri": 3505,
      "Mahathir": 3506,
      "tele": 3507,
      "perang": 3508,
      "##yyah": 3509,
      "kenapa": 3510,
      "##lalu": 3511,
      "belakang": 3512,
      "Sur": 3513,
      "Kalau": 3514,
      "##ety": 3515,
      "##uanya": 3516,
      "merujuk": 3517,
      "barang": 3518,
      "##ory": 3519,
      "##ism": 3520,
      "pembinaan": 3521,
      "dar": 3522,
      "said": 3523,
      "II": 3524,
      "perbandaran": 3525,
      "penyelidikan": 3526,
      "##ij": 3527,
      "##str": 3528,
      "hadap": 3529,
      "buk": 3530,
      "##roup": 3531,
      "ah": 3532,
      "been": 3533,
      "##amat": 3534,
      "more": 3535,
      "jauh": 3536,
      "Us": 3537,
      "Ok": 3538,
      "solat": 3539,
      "##sional": 3540,
      "##apak": 3541,
      "tenaga": 3542,
      "##sud": 3543,
      "religi": 3544,
      "##EMB": 3545,
      "terbaik": 3546,
      "##jektif": 3547,
      "Abdullah": 3548,
      "terutamanya": 3549,
      "##angunkan": 3550,
      "samping": 3551,
      "Tindakan": 3552,
      "positif": 3553,
      "##afah": 3554,
      "Ism": 3555,
      "100": 3556,
      "27": 3557,
      "Terengganu": 3558,
      "##erh": 3559,
      "##ahwin": 3560,
      "bekas": 3561,
      "mengatakan": 3562,
      "##ase": 3563,
      "kebanyakan": 3564,
      "Tinggi": 3565,
      "##usaha": 3566,
      "Walaupun": 3567,
      "##ezaan": 3568,
      "faham": 3569,
      "##olehkan": 3570,
      "Kedah": 3571,
      "##zah": 3572,
      "##ospital": 3573,
      "mengand": 3574,
      "##umpa": 3575,
      "##ormat": 3576,
      "##isan": 3577,
      "##ople": 3578,
      "akh": 3579,
      "31": 3580,
      "##low": 3581,
      "##dikit": 3582,
      "penuh": 3583,
      "sekiranya": 3584,
      "prinsip": 3585,
      "##egori": 3586,
      "khas": 3587,
      "##kenalkan": 3588,
      "##ulai": 3589,
      "##TERI": 3590,
      "antarabangsa": 3591,
      "##uster": 3592,
      "##andungan": 3593,
      "qu": 3594,
      "##uf": 3595,
      "sebag": 3596,
      "##incangan": 3597,
      "##empat": 3598,
      "nombor": 3599,
      "kerjasama": 3600,
      "lay": 3601,
      "rec": 3602,
      "##abaran": 3603,
      "##rasi": 3604,
      "Jen": 3605,
      "kapal": 3606,
      "##ade": 3607,
      "##ayaan": 3608,
      "##ist": 3609,
      "##fic": 3610,
      "saat": 3611,
      "inv": 3612,
      "##itkan": 3613,
      "perc": 3614,
      "##ideo": 3615,
      "sebagainya": 3616,
      "huj": 3617,
      "Kur": 3618,
      "##aliknya": 3619,
      "berter": 3620,
      "Sains": 3621,
      "##ling": 3622,
      "Januari": 3623,
      "sedia": 3624,
      "idea": 3625,
      "##sik": 3626,
      "##uny": 3627,
      "wa": 3628,
      "should": 3629,
      "##imbalan": 3630,
      "berhubung": 3631,
      "##stem": 3632,
      "ver": 3633,
      "sikit": 3634,
      "Af": 3635,
      "ph": 3636,
      "li": 3637,
      "agensi": 3638,
      "SP": 3639,
      "Li": 3640,
      "what": 3641,
      "ta": 3642,
      "sedikit": 3643,
      "work": 3644,
      "berasaskan": 3645,
      "Re": 3646,
      "##ungsi": 3647,
      "26": 3648,
      "sokongan": 3649,
      "##rough": 3650,
      "cer": 3651,
      "##syarah": 3652,
      "Berd": 3653,
      "##dah": 3654,
      "##ble": 3655,
      "##hkan": 3656,
      "maksud": 3657,
      "##akwa": 3658,
      "2007": 3659,
      "##ajikan": 3660,
      "gambar": 3661,
      "Yus": 3662,
      "##olak": 3663,
      "diff": 3664,
      "##alsafah": 3665,
      "##utus": 3666,
      "##indak": 3667,
      "jah": 3668,
      "##nik": 3669,
      "##incangkan": 3670,
      "elem": 3671,
      "##amakan": 3672,
      "bertujuan": 3673,
      "##dalam": 3674,
      "Besar": 3675,
      "Nov": 3676,
      "##raf": 3677,
      "##buatan": 3678,
      "Perak": 3679,
      "Jerman": 3680,
      "membolehkan": 3681,
      "gag": 3682,
      "Tanah": 3683,
      "Mod": 3684,
      "##ampaikan": 3685,
      "awak": 3686,
      "##abung": 3687,
      "##war": 3688,
      "berkesan": 3689,
      "Pi": 3690,
      "ditem": 3691,
      "##eran": 3692,
      "Rakyat": 3693,
      "##bar": 3694,
      "sakit": 3695,
      "Haji": 3696,
      "##emuk": 3697,
      "##ric": 3698,
      "acc": 3699,
      "Melak": 3700,
      "##embagaan": 3701,
      "Gh": 3702,
      "dila": 3703,
      "Fak": 3704,
      "tok": 3705,
      "##esu": 3706,
      "emp": 3707,
      "MENTERI": 3708,
      "Nasional": 3709,
      "##inggalkan": 3710,
      "organisasi": 3711,
      "kre": 3712,
      "Satu": 3713,
      "pla": 3714,
      "pengguna": 3715,
      "pencapaian": 3716,
      "##yang": 3717,
      "pasaran": 3718,
      "2006": 3719,
      "##AB": 3720,
      "##ulasi": 3721,
      "##reat": 3722,
      "Ti": 3723,
      "akibat": 3724,
      "seni": 3725,
      "mengajar": 3726,
      "muka": 3727,
      "University": 3728,
      "human": 3729,
      "##lembagaan": 3730,
      "##syen": 3731,
      "menurut": 3732,
      "Um": 3733,
      "##uruf": 3734,
      "konteks": 3735,
      "terutama": 3736,
      "Str": 3737,
      "kesihatan": 3738,
      "##unuh": 3739,
      "##50": 3740,
      "perhatian": 3741,
      "28": 3742,
      "persek": 3743,
      "Sen": 3744,
      "Berdasarkan": 3745,
      "baca": 3746,
      "bagaimanapun": 3747,
      "##lusi": 3748,
      "utara": 3749,
      "##formasi": 3750,
      "def": 3751,
      "such": 3752,
      "##UL": 3753,
      "##sa": 3754,
      "##wo": 3755,
      "pelab": 3756,
      "naik": 3757,
      "sana": 3758,
      "##taranya": 3759,
      "##tilah": 3760,
      "##ween": 3761,
      "##alakkan": 3762,
      "##angga": 3763,
      "##tember": 3764,
      "##paten": 3765,
      "Mur": 3766,
      "disebut": 3767,
      "Co": 3768,
      "Raya": 3769,
      "##lektr": 3770,
      "##tudi": 3771,
      "##akwah": 3772,
      "##ugerah": 3773,
      "##eluar": 3774,
      "Ham": 3775,
      "##son": 3776,
      "bud": 3777,
      "##daf": 3778,
      "##pen": 3779,
      "dahulu": 3780,
      "pi": 3781,
      "##asatan": 3782,
      "##ertai": 3783,
      "##dagangan": 3784,
      "isi": 3785,
      "##pr": 3786,
      "peningkatan": 3787,
      "dikatakan": 3788,
      "warga": 3789,
      "##ue": 3790,
      "##bupaten": 3791,
      "Sal": 3792,
      "##cayaan": 3793,
      "Bahagian": 3794,
      "surat": 3795,
      "islam": 3796,
      "Pinang": 3797,
      "universiti": 3798,
      "pasal": 3799,
      "Wan": 3800,
      "##eraan": 3801,
      "##itaran": 3802,
      "musim": 3803,
      "##alang": 3804,
      "strategi": 3805,
      "abad": 3806,
      "Be": 3807,
      "Hasil": 3808,
      "##pun": 3809,
      "##omm": 3810,
      "unsur": 3811,
      "diterima": 3812,
      "##jadian": 3813,
      "Sementara": 3814,
      "Kami": 3815,
      "##ekalkan": 3816,
      "Ismail": 3817,
      "Sk": 3818,
      "##eria": 3819,
      "Selepas": 3820,
      "pelanc": 3821,
      "calon": 3822,
      "##ton": 3823,
      "##ink": 3824,
      "##IK": 3825,
      "##gantung": 3826,
      "menteri": 3827,
      "Pengajian": 3828,
      "Air": 3829,
      "bar": 3830,
      "##oth": 3831,
      "video": 3832,
      "##oriti": 3833,
      "world": 3834,
      "SO": 3835,
      "terkenal": 3836,
      "Kemahiran": 3837,
      "##amalkan": 3838,
      "like": 3839,
      "mengalami": 3840,
      "bilangan": 3841,
      "##ES": 3842,
      "perp": 3843,
      "##eral": 3844,
      "##ID": 3845,
      "##gunaan": 3846,
      "##enarkan": 3847,
      "##anjung": 3848,
      "sahabat": 3849,
      "Jalan": 3850,
      "##UK": 3851,
      "And": 3852,
      "diadakan": 3853,
      "Jadi": 3854,
      "Bagai": 3855,
      "##ild": 3856,
      "Alam": 3857,
      "##engaruhi": 3858,
      "research": 3859,
      "Utara": 3860,
      "##vern": 3861,
      "menjelaskan": 3862,
      "##uah": 3863,
      "diperoleh": 3864,
      "Perb": 3865,
      "##jayaan": 3866,
      "##ober": 3867,
      "Melaka": 3868,
      "Dunia": 3869,
      "terh": 3870,
      "memilih": 3871,
      "mengenal": 3872,
      "##ublic": 3873,
      "##ause": 3874,
      "Gr": 3875,
      "akhirnya": 3876,
      "knowledge": 3877,
      "between": 3878,
      "remaja": 3879,
      "##umkan": 3880,
      "##olehan": 3881,
      "Ibrahim": 3882,
      "194": 3883,
      "majlis": 3884,
      "##yakan": 3885,
      "ce": 3886,
      "pener": 3887,
      "item": 3888,
      "huruf": 3889,
      "unit": 3890,
      "##usteru": 3891,
      "terlalu": 3892,
      "perasaan": 3893,
      "teg": 3894,
      "sayang": 3895,
      "penulisan": 3896,
      "##arj": 3897,
      "Mahkamah": 3898,
      "##bi": 3899,
      "minyak": 3900,
      "2004": 3901,
      "sin": 3902,
      "high": 3903,
      "Kedua": 3904,
      "##gni": 3905,
      "2005": 3906,
      "##alia": 3907,
      "harta": 3908,
      "cadangan": 3909,
      "##ei": 3910,
      "##law": 3911,
      "##uter": 3912,
      "wat": 3913,
      "hadapan": 3914,
      "kemudahan": 3915,
      "berpen": 3916,
      "##porkan": 3917,
      "penyakit": 3918,
      "Kota": 3919,
      "disc": 3920,
      "bangunan": 3921,
      "him": 3922,
      "pemerintahan": 3923,
      "Contoh": 3924,
      "##alaysia": 3925,
      "PEMB": 3926,
      "##oli": 3927,
      "##letakkan": 3928,
      "29": 3929,
      "keber": 3930,
      "##angkat": 3931,
      "Agama": 3932,
      "##embang": 3933,
      "##eriksaan": 3934,
      "##ahagi": 3935,
      "##ice": 3936,
      "people": 3937,
      "KU": 3938,
      "##ebat": 3939,
      "##emukakan": 3940,
      "enam": 3941,
      "tanggungjawab": 3942,
      "##ING": 3943,
      "Timbalan": 3944,
      "Imam": 3945,
      "September": 3946,
      "##tober": 3947,
      "duk": 3948,
      "berku": 3949,
      "For": 3950,
      "cari": 3951,
      "umur": 3952,
      "khusus": 3953,
      "mengandungi": 3954,
      "pendapat": 3955,
      "Aziz": 3956,
      "DE": 3957,
      "##tish": 3958,
      "Manakala": 3959,
      "Memb": 3960,
      "##angu": 3961,
      "pot": 3962,
      "##jadikan": 3963,
      "pap": 3964,
      "may": 3965,
      "Rep": 3966,
      "##quir": 3967,
      "##entera": 3968,
      "##ancang": 3969,
      "##ture": 3970,
      "##andard": 3971,
      "##atis": 3972,
      "conf": 3973,
      "perbezaan": 3974,
      "Jakarta": 3975,
      "takut": 3976,
      "##urangan": 3977,
      "##ukur": 3978,
      "ko": 3979,
      "Daerah": 3980,
      "seles": 3981,
      "PH": 3982,
      "rasmi": 3983,
      "sepen": 3984,
      "##urus": 3985,
      "Kam": 3986,
      "komuniti": 3987,
      "about": 3988,
      "##ikh": 3989,
      "##embaga": 3990,
      "Bandar": 3991,
      "##edaran": 3992,
      "##ournal": 3993,
      "syarat": 3994,
      "memand": 3995,
      "timur": 3996,
      "mewujudkan": 3997,
      "##atuh": 3998,
      "##okasi": 3999,
      "daya": 4000,
      "simp": 4001,
      "kak": 4002,
      "menang": 4003,
      "##tup": 4004,
      "##empatan": 4005,
      "##ongsi": 4006,
      "commun": 4007,
      "budak": 4008,
      "menghadapi": 4009,
      "##ams": 4010,
      "##etak": 4011,
      "##fa": 4012,
      "demi": 4013,
      "kandungan": 4014,
      "eks": 4015,
      "##ber": 4016,
      "##conom": 4017,
      "malah": 4018,
      "Dasar": 4019,
      "karya": 4020,
      "Seh": 4021,
      "terpaksa": 4022,
      "Mo": 4023,
      "2003": 4024,
      "didapati": 4025,
      "intern": 4026,
      "##butan": 4027,
      "##RM": 4028,
      "##ful": 4029,
      "Lapangan": 4030,
      "##urang": 4031,
      "##yuarat": 4032,
      "##adar": 4033,
      "teori": 4034,
      "memenuhi": 4035,
      "kesalahan": 4036,
      "##ish": 4037,
      "bersifat": 4038,
      "Kabupaten": 4039,
      "alat": 4040,
      "minggu": 4041,
      "##ebr": 4042,
      "##til": 4043,
      "swasta": 4044,
      "2000": 4045,
      "##gos": 4046,
      "berat": 4047,
      "##aun": 4048,
      "Peg": 4049,
      "kejadian": 4050,
      "some": 4051,
      "penilaian": 4052,
      "##osa": 4053,
      "Hari": 4054,
      "Secara": 4055,
      "ulama": 4056,
      "perbincangan": 4057,
      "##ewa": 4058,
      "operasi": 4059,
      "bisa": 4060,
      "Bers": 4061,
      "Kar": 4062,
      "berapa": 4063,
      "##ile": 4064,
      "##ulakan": 4065,
      "dijadikan": 4066,
      "sukar": 4067,
      "Tur": 4068,
      "profesi": 4069,
      "British": 4070,
      "reg": 4071,
      "Pos": 4072,
      "ruang": 4073,
      "##lobal": 4074,
      "##amin": 4075,
      "terakhir": 4076,
      "##oto": 4077,
      "hala": 4078,
      "turun": 4079,
      "tid": 4080,
      "lak": 4081,
      "##tinggi": 4082,
      "signi": 4083,
      "##tal": 4084,
      "seli": 4085,
      "##salam": 4086,
      "meminta": 4087,
      "##trak": 4088,
      "cre": 4089,
      "##aluan": 4090,
      "##ne": 4091,
      "tepat": 4092,
      "matlamat": 4093,
      "bola": 4094,
      "##anda": 4095,
      "penyeli": 4096,
      "Pal": 4097,
      "dikeluarkan": 4098,
      "##vis": 4099,
      "term": 4100,
      "Ma": 4101,
      "##elar": 4102,
      "Katanya": 4103,
      "##aly": 4104,
      "##TA": 4105,
      "##emer": 4106,
      "Terbang": 4107,
      "##fore": 4108,
      "##erang": 4109,
      "##ences": 4110,
      "Teknologi": 4111,
      "##ustak": 4112,
      "development": 4113,
      "through": 4114,
      "milik": 4115,
      "November": 4116,
      "differ": 4117,
      "Journal": 4118,
      "##ko": 4119,
      "bank": 4120,
      "sas": 4121,
      "##undi": 4122,
      "when": 4123,
      "perso": 4124,
      "##zik": 4125,
      "Pelajar": 4126,
      "menyelesaikan": 4127,
      "cukai": 4128,
      "##ure": 4129,
      "lahir": 4130,
      "berusia": 4131,
      "##utnya": 4132,
      "any": 4133,
      "##atas": 4134,
      "bebas": 4135,
      "##ever": 4136,
      "mengurangkan": 4137,
      "##ills": 4138,
      "Pend": 4139,
      "kota": 4140,
      "dibina": 4141,
      "need": 4142,
      "pemerintah": 4143,
      "##anjian": 4144,
      "##acaan": 4145,
      "bermaksud": 4146,
      "based": 4147,
      "biasanya": 4148,
      "Disember": 4149,
      "##tahan": 4150,
      "sam": 4151,
      "##uncul": 4152,
      "mangsa": 4153,
      "##utang": 4154,
      "raja": 4155,
      "##fahaman": 4156,
      "menentukan": 4157,
      "pensyarah": 4158,
      "PP": 4159,
      "Justeru": 4160,
      "##ademik": 4161,
      "##43": 4162,
      "##ders": 4163,
      "tanda": 4164,
      "merangku": 4165,
      "Rahman": 4166,
      "##uluh": 4167,
      "##0065": 4168,
      "ingat": 4169,
      "kementerian": 4170,
      "only": 4171,
      "Ken": 4172,
      "kor": 4173,
      "Prof": 4174,
      "eff": 4175,
      "Raz": 4176,
      "Mes": 4177,
      "##ult": 4178,
      "##omen": 4179,
      "Sch": 4180,
      "Hadi": 4181,
      "##ron": 4182,
      "apakah": 4183,
      "##ebut": 4184,
      "##elahirkan": 4185,
      "##IP": 4186,
      "##elanjaan": 4187,
      "kisah": 4188,
      "Undang": 4189,
      "bakal": 4190,
      "##ajuan": 4191,
      "Apabila": 4192,
      "Wilayah": 4193,
      "##ekod": 4194,
      "gaya": 4195,
      "60": 4196,
      "DAN": 4197,
      "##unjuk": 4198,
      "Sun": 4199,
      "group": 4200,
      "##YAT": 4201,
      "##sed": 4202,
      "elektr": 4203,
      "##juh": 4204,
      "##KM": 4205,
      "elemen": 4206,
      "persoalan": 4207,
      "##ator": 4208,
      "##ingkas": 4209,
      "teks": 4210,
      "dita": 4211,
      "sebut": 4212,
      "life": 4213,
      "##untut": 4214,
      "##eld": 4215,
      "##dil": 4216,
      "##bum": 4217,
      "##erd": 4218,
      "##sy": 4219,
      "berterusan": 4220,
      "Ogos": 4221,
      "iden": 4222,
      "##adangkan": 4223,
      "Baru": 4224,
      "bersetuju": 4225,
      "peserta": 4226,
      "Pengarah": 4227,
      "##ompok": 4228,
      "ketua": 4229,
      "Filem": 4230,
      "Austr": 4231,
      "ditetapkan": 4232,
      "##vinsi": 4233,
      "kualiti": 4234,
      "##oral": 4235,
      "sc": 4236,
      "##luk": 4237,
      "At": 4238,
      "##ema": 4239,
      "balas": 4240,
      "pos": 4241,
      "rah": 4242,
      "Nur": 4243,
      "##anguage": 4244,
      "##ji": 4245,
      "##upayaan": 4246,
      "kaki": 4247,
      "berubah": 4248,
      "##elesaian": 4249,
      "kurikulum": 4250,
      "Komun": 4251,
      "percaya": 4252,
      "way": 4253,
      "Jawatan": 4254,
      "kejayaan": 4255,
      "##unyi": 4256,
      "cepat": 4257,
      "these": 4258,
      "menyokong": 4259,
      "##amkan": 4260,
      "gaji": 4261,
      "##ainkan": 4262,
      "Polis": 4263,
      "##zi": 4264,
      "Soci": 4265,
      "taj": 4266,
      "2002": 4267,
      "PK": 4268,
      "Julai": 4269,
      "sementara": 4270,
      "##cipta": 4271,
      "Bank": 4272,
      "##iter": 4273,
      "siap": 4274,
      "##ces": 4275,
      "new": 4276,
      "##har": 4277,
      "##uji": 4278,
      "Oktober": 4279,
      "terbuka": 4280,
      "melahirkan": 4281,
      "##mb": 4282,
      "top": 4283,
      "##untuk": 4284,
      "Go": 4285,
      "muh": 4286,
      "##alnya": 4287,
      "first": 4288,
      "okey": 4289,
      "nya": 4290,
      "Nas": 4291,
      "system": 4292,
      "##arjana": 4293,
      "menjawab": 4294,
      "##idah": 4295,
      "##tah": 4296,
      "##evel": 4297,
      "Kec": 4298,
      "Menengah": 4299,
      "##ates": 4300,
      "##WAN": 4301,
      "mengetahui": 4302,
      "analisis": 4303,
      "pengan": 4304,
      "into": 4305,
      "dilan": 4306,
      "kekal": 4307,
      "berusaha": 4308,
      "##ock": 4309,
      "merangkumi": 4310,
      "mengadakan": 4311,
      "##asakan": 4312,
      "Bi": 4313,
      "hai": 4314,
      "##ru": 4315,
      "marah": 4316,
      "##etengah": 4317,
      "##lok": 4318,
      "##yatakan": 4319,
      "##agement": 4320,
      "Mala": 4321,
      "IC": 4322,
      "situasi": 4323,
      "muncul": 4324,
      "##US": 4325,
      "##ET": 4326,
      "etnik": 4327,
      "gagal": 4328,
      "komunikasi": 4329,
      "tolong": 4330,
      "##sediakan": 4331,
      "##mbuhan": 4332,
      "##umbang": 4333,
      "year": 4334,
      "disediakan": 4335,
      "terbesar": 4336,
      "af": 4337,
      "Diper": 4338,
      "##leksi": 4339,
      "Bh": 4340,
      "brow": 4341,
      "##ollow": 4342,
      "pertanian": 4343,
      "tambahan": 4344,
      "semangat": 4345,
      "bertanggungjawab": 4346,
      "##budaya": 4347,
      "terbang": 4348,
      "cor": 4349,
      "PAS": 4350,
      "hilang": 4351,
      "tump": 4352,
      "Pah": 4353,
      "Dev": 4354,
      "peraturan": 4355,
      "kese": 4356,
      "##apat": 4357,
      "minat": 4358,
      "##gu": 4359,
      "Ex": 4360,
      "Walau": 4361,
      "jumpa": 4362,
      "##vernment": 4363,
      "Bin": 4364,
      "kegi": 4365,
      "bahwa": 4366,
      "memperoleh": 4367,
      "Hus": 4368,
      "##untukkan": 4369,
      "Febr": 4370,
      "Parti": 4371,
      "jawapan": 4372,
      "batu": 4373,
      "tidur": 4374,
      "bawa": 4375,
      "Sej": 4376,
      "instr": 4377,
      "##ropah": 4378,
      "cabaran": 4379,
      "##ward": 4380,
      "meneg": 4381,
      "Hak": 4382,
      "memba": 4383,
      "browser": 4384,
      "Kumpulan": 4385,
      "##angkap": 4386,
      "dom": 4387,
      "##hantar": 4388,
      "berper": 4389,
      "##za": 4390,
      "guna": 4391,
      "diperlukan": 4392,
      "BN": 4393,
      "##amadun": 4394,
      "teknik": 4395,
      "norm": 4396,
      "sud": 4397,
      "lat": 4398,
      "##of": 4399,
      "ik": 4400,
      "perib": 4401,
      "keli": 4402,
      "kemas": 4403,
      "##anji": 4404,
      "##illi": 4405,
      "##dara": 4406,
      "##estin": 4407,
      "RAK": 4408,
      "##tional": 4409,
      "ajaran": 4410,
      "##mpulan": 4411,
      "bergantung": 4412,
      "33": 4413,
      "##orong": 4414,
      "pres": 4415,
      "pelaburan": 4416,
      "ef": 4417,
      "ikut": 4418,
      "##ved": 4419,
      "##lawanan": 4420,
      "Sistem": 4421,
      "insan": 4422,
      "sepenuhnya": 4423,
      "Khal": 4424,
      "sta": 4425,
      "tau": 4426,
      "##umumkan": 4427,
      "2020": 4428,
      "##own": 4429,
      "##phet": 4430,
      "Sebelum": 4431,
      "pinj": 4432,
      "Bukit": 4433,
      "##ukul": 4434,
      "diku": 4435,
      "##ee": 4436,
      "kegiatan": 4437,
      "prac": 4438,
      "35": 4439,
      "bab": 4440,
      "her": 4441,
      "bumi": 4442,
      "status": 4443,
      "tuli": 4444,
      "##very": 4445,
      "over": 4446,
      "##amily": 4447,
      "perbuatan": 4448,
      "kematian": 4449,
      "##ungguh": 4450,
      "prestasi": 4451,
      "ringkas": 4452,
      "Syariah": 4453,
      "korang": 4454,
      "lapangan": 4455,
      "dok": 4456,
      "RAKYAT": 4457,
      "because": 4458,
      "Maka": 4459,
      "menyertai": 4460,
      "aut": 4461,
      "Eropah": 4462,
      "menambah": 4463,
      "sebaliknya": 4464,
      "##mu": 4465,
      "persekitaran": 4466,
      "##umahan": 4467,
      "hendaklah": 4468,
      "##ite": 4469,
      "##tant": 4470,
      "##ublik": 4471,
      "hadis": 4472,
      "His": 4473,
      "##EK": 4474,
      "Ram": 4475,
      "aktif": 4476,
      "istilah": 4477,
      "hadir": 4478,
      "00": 4479,
      "menjaga": 4480,
      "kontrak": 4481,
      "ev": 4482,
      "Pel": 4483,
      "school": 4484,
      "ref": 4485,
      "##arap": 4486,
      "education": 4487,
      "dengar": 4488,
      "##asis": 4489,
      "##wn": 4490,
      "##angkutan": 4491,
      "##ision": 4492,
      "two": 4493,
      "melebih": 4494,
      "##gak": 4495,
      "than": 4496,
      "Bur": 4497,
      "Pertua": 4498,
      "##fon": 4499,
      "##alanan": 4500,
      "tokoh": 4501,
      "##utera": 4502,
      "##tory": 4503,
      "Tentera": 4504,
      "mengeluarkan": 4505,
      "##uali": 4506,
      "Jawatankuasa": 4507,
      "cul": 4508,
      "##ingkatkan": 4509,
      "Antarabangsa": 4510,
      "##rib": 4511,
      "##faat": 4512,
      "Buku": 4513,
      "hi": 4514,
      "law": 4515,
      "baginda": 4516,
      "bertindak": 4517,
      "##elajari": 4518,
      "Pembelajaran": 4519,
      "##sepsi": 4520,
      "##orea": 4521,
      "menentang": 4522,
      "##tus": 4523,
      "moden": 4524,
      "sembah": 4525,
      "Ghaz": 4526,
      "##emua": 4527,
      "Ko": 4528,
      "##umbangan": 4529,
      "##kuatan": 4530,
      "##wat": 4531,
      "lead": 4532,
      "##ace": 4533,
      "how": 4534,
      "LIS": 4535,
      "pakar": 4536,
      "proc": 4537,
      "##old": 4538,
      "tulisan": 4539,
      "DEWAN": 4540,
      "penyelesaian": 4541,
      "Setelah": 4542,
      "##ceh": 4543,
      "##olej": 4544,
      "perbelanjaan": 4545,
      "##derst": 4546,
      "keg": 4547,
      "pejabat": 4548,
      "Em": 4549,
      "IN": 4550,
      "36": 4551,
      "##takan": 4552,
      "follow": 4553,
      "##isti": 4554,
      "dirinya": 4555,
      "antaranya": 4556,
      "##uasai": 4557,
      "##siran": 4558,
      "menengah": 4559,
      "social": 4560,
      "if": 4561,
      "suara": 4562,
      "fiz": 4563,
      "##entangan": 4564,
      "cuma": 4565,
      "Sp": 4566,
      "##andingan": 4567,
      "God": 4568,
      "dipilih": 4569,
      "vari": 4570,
      "bermain": 4571,
      "##eluaran": 4572,
      "api": 4573,
      "menggalakkan": 4574,
      "profesional": 4575,
      "kedai": 4576,
      "Apa": 4577,
      "##asikan": 4578,
      "##isk": 4579,
      "Bas": 4580,
      "Kew": 4581,
      "Taman": 4582,
      "aliran": 4583,
      "Moham": 4584,
      "menangani": 4585,
      "Masjid": 4586,
      "Februari": 4587,
      "##IT": 4588,
      "Nabi": 4589,
      "##budayaan": 4590,
      "ikan": 4591,
      "##blem": 4592,
      "dec": 4593,
      "akademik": 4594,
      "##dak": 4595,
      "##ancarkan": 4596,
      "jar": 4597,
      "Shari": 4598,
      "##guna": 4599,
      "##ainan": 4600,
      "melebihi": 4601,
      "ro": 4602,
      "sepak": 4603,
      "keter": 4604,
      "##awasan": 4605,
      "##aiki": 4606,
      "Setiap": 4607,
      "ribu": 4608,
      "##aiz": 4609,
      "##bulan": 4610,
      "would": 4611,
      "objektif": 4612,
      "Mad": 4613,
      "dana": 4614,
      "Rasulullah": 4615,
      "##line": 4616,
      "##no": 4617,
      "sudut": 4618,
      "Kaedah": 4619,
      "Isu": 4620,
      "##araf": 4621,
      "rev": 4622,
      "##adanya": 4623,
      "Bag": 4624,
      "hospital": 4625,
      "##patutnya": 4626,
      "##akna": 4627,
      "pengg": 4628,
      "impor": 4629,
      "fin": 4630,
      "Aceh": 4631,
      "##zation": 4632,
      "part": 4633,
      "##adat": 4634,
      "sat": 4635,
      "requir": 4636,
      "Rajah": 4637,
      "meninggal": 4638,
      "##atasi": 4639,
      "##ailand": 4640,
      "##RI": 4641,
      "berasal": 4642,
      "##ference": 4643,
      "level": 4644,
      "##enaran": 4645,
      "car": 4646,
      "##enderaan": 4647,
      "kepercayaan": 4648,
      "siasatan": 4649,
      "Poli": 4650,
      "luas": 4651,
      "Semua": 4652,
      "US": 4653,
      "mul": 4654,
      "well": 4655,
      "KUALA": 4656,
      "##day": 4657,
      "##adik": 4658,
      "penerb": 4659,
      "jaga": 4660,
      "##tikal": 4661,
      "Ri": 4662,
      "Dir": 4663,
      "##eikh": 4664,
      "saw": 4665,
      "##titi": 4666,
      "among": 4667,
      "susah": 4668,
      "zakat": 4669,
      "menguasai": 4670,
      "mendengar": 4671,
      "Pengerusi": 4672,
      "lokasi": 4673,
      "70": 4674,
      "tingk": 4675,
      "Bu": 4676,
      "Masyarakat": 4677,
      "Australia": 4678,
      "kepimpinan": 4679,
      "##siatif": 4680,
      "saud": 4681,
      "Seti": 4682,
      "terjadi": 4683,
      "dilantik": 4684,
      "##eliti": 4685,
      "Pertama": 4686,
      "##ahun": 4687,
      "mahkamah": 4688,
      "##duli": 4689,
      "Jam": 4690,
      "lihat": 4691,
      "tua": 4692,
      "##rec": 4693,
      "karena": 4694,
      "dijangka": 4695,
      "Beb": 4696,
      "Pelajaran": 4697,
      "pertumbuhan": 4698,
      "col": 4699,
      "##ristian": 4700,
      "##kod": 4701,
      "##hana": 4702,
      "##kuasaan": 4703,
      "##app": 4704,
      "##rol": 4705,
      "##uki": 4706,
      "##ba": 4707,
      "##ampuan": 4708,
      "Pet": 4709,
      "##echnical": 4710,
      "Ju": 4711,
      "kemudiannya": 4712,
      "##uruhanjaya": 4713,
      "##ST": 4714,
      "##elanda": 4715,
      "45": 4716,
      "sesebuah": 4717,
      "mulai": 4718,
      "leg": 4719,
      "perg": 4720,
      "Pilihan": 4721,
      "##hod": 4722,
      "##ie": 4723,
      "kertas": 4724,
      "Sebab": 4725,
      "berkembang": 4726,
      "aman": 4727,
      "sebelah": 4728,
      "sembahyang": 4729,
      "kal": 4730,
      "must": 4731,
      "##ght": 4732,
      "##TAH": 4733,
      "##ide": 4734,
      "Ac": 4735,
      "##uni": 4736,
      "##ihan": 4737,
      "##truktur": 4738,
      "##istiwa": 4739,
      "perjalanan": 4740,
      "sun": 4741,
      "siri": 4742,
      "tas": 4743,
      "KP": 4744,
      "##tera": 4745,
      "Ekonomi": 4746,
      "##wal": 4747,
      "fikir": 4748,
      "eng": 4749,
      "1999": 4750,
      "##30": 4751,
      "##akkan": 4752,
      "##ner": 4753,
      "##batan": 4754,
      "inisiatif": 4755,
      "##ance": 4756,
      "maju": 4757,
      "##ecah": 4758,
      "jawab": 4759,
      "perdagangan": 4760,
      "laman": 4761,
      "kategori": 4762,
      "##ahwinan": 4763,
      "bermakna": 4764,
      "##qh": 4765,
      "##ature": 4766,
      "wajib": 4767,
      "penulis": 4768,
      "mengaku": 4769,
      "##ondon": 4770,
      "Korea": 4771,
      "Ben": 4772,
      "##aka": 4773,
      "hutang": 4774,
      "##dali": 4775,
      "##hamduli": 4776,
      "Ph": 4777,
      "Thailand": 4778,
      "Perlembagaan": 4779,
      "##itam": 4780,
      "kekuatan": 4781,
      "laku": 4782,
      "##arg": 4783,
      "global": 4784,
      "##esanan": 4785,
      "serangan": 4786,
      "##ogni": 4787,
      "berla": 4788,
      "##inkan": 4789,
      "gi": 4790,
      "Tuhan": 4791,
      "LISAN": 4792,
      "##urn": 4793,
      "##tikel": 4794,
      "##hab": 4795,
      "##abungan": 4796,
      "ianya": 4797,
      "##lud": 4798,
      "TV": 4799,
      "arahan": 4800,
      "##ingkan": 4801,
      "made": 4802,
      "integ": 4803,
      "##taz": 4804,
      "Comm": 4805,
      "Rom": 4806,
      "selamat": 4807,
      "Tetap": 4808,
      "meninggalkan": 4809,
      "##intang": 4810,
      "##ating": 4811,
      "struktur": 4812,
      "berfikir": 4813,
      "menyebut": 4814,
      "Perkara": 4815,
      "##unsel": 4816,
      "tekan": 4817,
      "Najib": 4818,
      "##UMP": 4819,
      "dur": 4820,
      "selatan": 4821,
      "perl": 4822,
      "mempengaruhi": 4823,
      "gela": 4824,
      "1998": 4825,
      "##ERITAH": 4826,
      "##angkang": 4827,
      "jenayah": 4828,
      "fr": 4829,
      "JAW": 4830,
      "##alog": 4831,
      "##ath": 4832,
      "London": 4833,
      "Poskod": 4834,
      "mon": 4835,
      "Masa": 4836,
      "rancangan": 4837,
      "pokok": 4838,
      "tertinggi": 4839,
      "Aman": 4840,
      "medi": 4841,
      "beg": 4842,
      "##elih": 4843,
      "berl": 4844,
      "kelompok": 4845,
      "RM2": 4846,
      "Sa": 4847,
      "pengaruh": 4848,
      "PEMBERITAH": 4849,
      "membangunkan": 4850,
      "kenderaan": 4851,
      "kebenaran": 4852,
      "##mon": 4853,
      "dgn": 4854,
      "bertem": 4855,
      "##andu": 4856,
      "dibawa": 4857,
      "under": 4858,
      "##cept": 4859,
      "ditubuhkan": 4860,
      "##inja": 4861,
      "ut": 4862,
      "##bulkan": 4863,
      "panduan": 4864,
      "Bagaimanapun": 4865,
      "##OR": 4866,
      "semalam": 4867,
      "sepatutnya": 4868,
      "##ayu": 4869,
      "generasi": 4870,
      "Dem": 4871,
      "##didik": 4872,
      "##conomic": 4873,
      "minit": 4874,
      "Syed": 4875,
      "log": 4876,
      "##ambarkan": 4877,
      "pasangan": 4878,
      "underst": 4879,
      "seder": 4880,
      "muhammad": 4881,
      "berkuasa": 4882,
      "mengikuti": 4883,
      "issu": 4884,
      "suruh": 4885,
      "my": 4886,
      "##ALAN": 4887,
      "cap": 4888,
      "tujuh": 4889,
      "##ny": 4890,
      "##jec": 4891,
      "family": 4892,
      "terba": 4893,
      "senang": 4894,
      "Ketika": 4895,
      "petang": 4896,
      "UP": 4897,
      "malaysia": 4898,
      "being": 4899,
      "populasi": 4900,
      "##teraan": 4901,
      "darjah": 4902,
      "##yp": 4903,
      "dihasilkan": 4904,
      "Industri": 4905,
      "kesedaran": 4906,
      "##hamdulillah": 4907,
      "##intah": 4908,
      "##ens": 4909,
      "Salah": 4910,
      "lo": 4911,
      "perlawanan": 4912,
      "muzik": 4913,
      "Kerja": 4914,
      "Met": 4915,
      "DAP": 4916,
      "##anyol": 4917,
      "keupayaan": 4918,
      "memulakan": 4919,
      "##liah": 4920,
      "semata": 4921,
      "##intaan": 4922,
      "selidik": 4923,
      "watak": 4924,
      "kepala": 4925,
      "sederhana": 4926,
      "##gantikan": 4927,
      "Fac": 4928,
      "##isiko": 4929,
      "Murid": 4930,
      "Sci": 4931,
      "kot": 4932,
      "most": 4933,
      "laluan": 4934,
      "mot": 4935,
      "berita": 4936,
      "##ves": 4937,
      "##ungkinan": 4938,
      "##IL": 4939,
      "##cayai": 4940,
      "sumbangan": 4941,
      "##cik": 4942,
      "##endiri": 4943,
      "##afsir": 4944,
      "usah": 4945,
      "##ambung": 4946,
      "32": 4947,
      "##ooks": 4948,
      "##ohonan": 4949,
      "##eki": 4950,
      "Pengurusan": 4951,
      "urusan": 4952,
      "##TM": 4953,
      "##ubuhan": 4954,
      "lanjut": 4955,
      "##uda": 4956,
      "##40": 4957,
      "BIN": 4958,
      "modal": 4959,
      "Pahang": 4960,
      "Trans": 4961,
      "buruk": 4962,
      "perancangan": 4963,
      "diw": 4964,
      "##iness": 4965,
      "long": 4966,
      "Dipertua": 4967,
      "Jur": 4968,
      "pelan": 4969,
      "##erg": 4970,
      "Dato": 4971,
      "There": 4972,
      "menyampaikan": 4973,
      "Ghazali": 4974,
      "kawalan": 4975,
      "##UMPUR": 4976,
      "kesi": 4977,
      "##iron": 4978,
      "yakin": 4979,
      "jangka": 4980,
      "LUMPUR": 4981,
      "##ayat": 4982,
      "##utuskan": 4983,
      "##tice": 4984,
      "album": 4985,
      "tum": 4986,
      "hang": 4987,
      "##rif": 4988,
      "##olong": 4989,
      "tingkah": 4990,
      "mengelak": 4991,
      "##ambut": 4992,
      "Bar": 4993,
      "##ematik": 4994,
      "##ood": 4995,
      "anj": 4996,
      "doku": 4997,
      "##buktikan": 4998,
      "##imbang": 4999,
      "##xt": 5000,
      "##co": 5001,
      "Suruhanjaya": 5002,
      "##dih": 5003,
      "sungai": 5004,
      "AL": 5005,
      "suku": 5006,
      "##esuaian": 5007,
      "person": 5008,
      "hand": 5009,
      "Malaysian": 5010,
      "##ors": 5011,
      "wah": 5012,
      "##IAN": 5013,
      "used": 5014,
      "Tengah": 5015,
      "Bila": 5016,
      "makna": 5017,
      "##AC": 5018,
      "##kin": 5019,
      "##ness": 5020,
      "meletakkan": 5021,
      "##vi": 5022,
      "##ency": 5023,
      "##disi": 5024,
      "How": 5025,
      "##ikum": 5026,
      "##formation": 5027,
      "Persatuan": 5028,
      "bekalan": 5029,
      "Ya": 5030,
      "appro": 5031,
      "Harapan": 5032,
      "Ros": 5033,
      "sebagaimana": 5034,
      "menilai": 5035,
      "Press": 5036,
      "tumpuan": 5037,
      "telefon": 5038,
      "##ujukan": 5039,
      "gerakan": 5040,
      "motiv": 5041,
      "##tiraf": 5042,
      "jugak": 5043,
      "##try": 5044,
      "kanan": 5045,
      "##aitkan": 5046,
      "##DA": 5047,
      "Jawa": 5048,
      "Sab": 5049,
      "Sepanyol": 5050,
      "itulah": 5051,
      "##umip": 5052,
      "pukul": 5053,
      "then": 5054,
      "##istan": 5055,
      "Development": 5056,
      "pinjaman": 5057,
      "permainan": 5058,
      "menolak": 5059,
      "##annya": 5060,
      "Col": 5061,
      "##ject": 5062,
      "Pand": 5063,
      "ny": 5064,
      "by": 5065,
      "Berhormat": 5066,
      "##ters": 5067,
      "memak": 5068,
      "here": 5069,
      "##awanan": 5070,
      "jatuh": 5071,
      "run": 5072,
      "##ebook": 5073,
      "Bukan": 5074,
      "kun": 5075,
      "baju": 5076,
      "DAT": 5077,
      "Mohamed": 5078,
      "Int": 5079,
      "Ibu": 5080,
      "fe": 5081,
      "Lembaga": 5082,
      "PENG": 5083,
      "Zain": 5084,
      "writ": 5085,
      "Turki": 5086,
      "##kand": 5087,
      "pelakon": 5088,
      "segera": 5089,
      "camp": 5090,
      "##ash": 5091,
      "use": 5092,
      "timbul": 5093,
      "##eluarga": 5094,
      "##jem": 5095,
      "AN": 5096,
      "perse": 5097,
      "##tics": 5098,
      "Pener": 5099,
      "ditemui": 5100,
      "##ekaan": 5101,
      "dian": 5102,
      "##ren": 5103,
      "##udahkan": 5104,
      "Wor": 5105,
      "##hatan": 5106,
      "memainkan": 5107,
      "De": 5108,
      "negatif": 5109,
      "Sumber": 5110,
      "##iktiraf": 5111,
      "pesawat": 5112,
      "menyel": 5113,
      "process": 5114,
      "skills": 5115,
      "alasan": 5116,
      "bo": 5117,
      "hant": 5118,
      "Melalui": 5119,
      "##wer": 5120,
      "Para": 5121,
      "warna": 5122,
      "##ADA": 5123,
      "Itali": 5124,
      "membu": 5125,
      "##alaikum": 5126,
      "emosi": 5127,
      "bacaan": 5128,
      "##tudies": 5129,
      "Batu": 5130,
      "##ampiran": 5131,
      "Jumlah": 5132,
      "##IR": 5133,
      "mewak": 5134,
      "perkahwinan": 5135,
      "##etu": 5136,
      "##10": 5137,
      "##ope": 5138,
      "tentu": 5139,
      "##IC": 5140,
      "##riti": 5141,
      "falsafah": 5142,
      "##adilan": 5143,
      "cat": 5144,
      "##andat": 5145,
      "pep": 5146,
      "Laut": 5147,
      "##ais": 5148,
      "clas": 5149,
      "dapatan": 5150,
      "##elasan": 5151,
      "berjalan": 5152,
      "Provinsi": 5153,
      "setahun": 5154,
      "sambil": 5155,
      "conc": 5156,
      "kefahaman": 5157,
      "Perang": 5158,
      "problem": 5159,
      "pengeluaran": 5160,
      "##wi": 5161,
      "##tri": 5162,
      "tajuk": 5163,
      "##viron": 5164,
      "language": 5165,
      "##ebasan": 5166,
      "Ses": 5167,
      "Malaya": 5168,
      "many": 5169,
      "good": 5170,
      "provid": 5171,
      "##ebar": 5172,
      "order": 5173,
      "##akaran": 5174,
      "Tetapi": 5175,
      "##inat": 5176,
      "jur": 5177,
      "##ponen": 5178,
      "##umen": 5179,
      "##ungguhnya": 5180,
      "##vironment": 5181,
      "perubatan": 5182,
      "United": 5183,
      "uc": 5184,
      "Research": 5185,
      "1M": 5186,
      "rawatan": 5187,
      "##plin": 5188,
      "haram": 5189,
      "cik": 5190,
      "##ording": 5191,
      "##grafi": 5192,
      "##ahaya": 5193,
      "Kewangan": 5194,
      "tel": 5195,
      "##avi": 5196,
      "##anyi": 5197,
      "##bitkan": 5198,
      "Pegawai": 5199,
      "##EC": 5200,
      "rapat": 5201,
      "mahupun": 5202,
      "##eti": 5203,
      "perpaduan": 5204,
      "meneruskan": 5205,
      "##ket": 5206,
      "bat": 5207,
      "termasuklah": 5208,
      "Penc": 5209,
      "IPG": 5210,
      "Fi": 5211,
      "wakil": 5212,
      "tunggal": 5213,
      "kakak": 5214,
      "Beri": 5215,
      "berbagai": 5216,
      "pulau": 5217,
      "##ulia": 5218,
      "muslim": 5219,
      "show": 5220,
      "BER": 5221,
      "sedar": 5222,
      "bukanlah": 5223,
      "Sukan": 5224,
      "##itas": 5225,
      "tradisional": 5226,
      "Bo": 5227,
      "##aib": 5228,
      "##kesanan": 5229,
      "gu": 5230,
      "##umiputera": 5231,
      "beri": 5232,
      "experi": 5233,
      "##yid": 5234,
      "##pir": 5235,
      "##AY": 5236,
      "pintu": 5237,
      "80": 5238,
      "39": 5239,
      "##untutan": 5240,
      "Institut": 5241,
      "##ATAN": 5242,
      "fungsi": 5243,
      "Mesir": 5244,
      "bus": 5245,
      "Meny": 5246,
      "##indah": 5247,
      "dag": 5248,
      "MO": 5249,
      "pengkaji": 5250,
      "##iet": 5251,
      "Pela": 5252,
      "##elamat": 5253,
      "Malah": 5254,
      "perjanjian": 5255,
      "##embangkan": 5256,
      "berbentuk": 5257,
      "Apakah": 5258,
      "peribadi": 5259,
      "pengu": 5260,
      "terd": 5261,
      "valu": 5262,
      "1996": 5263,
      "sukan": 5264,
      "non": 5265,
      "komputer": 5266,
      "##iliti": 5267,
      "peristiwa": 5268,
      "mewakili": 5269,
      "sidang": 5270,
      "permohonan": 5271,
      "1997": 5272,
      "government": 5273,
      "Din": 5274,
      "##enangan": 5275,
      "##lev": 5276,
      "lemah": 5277,
      "##sider": 5278,
      "##inet": 5279,
      "surah": 5280,
      "akhlak": 5281,
      "perund": 5282,
      "membincangkan": 5283,
      "Cor": 5284,
      "view": 5285,
      "skor": 5286,
      "terc": 5287,
      "Awam": 5288,
      "##ress": 5289,
      "dipanggil": 5290,
      "##arakan": 5291,
      "kebolehan": 5292,
      "##ausaha": 5293,
      "Wh": 5294,
      "cons": 5295,
      "fizikal": 5296,
      "mun": 5297,
      "pembentukan": 5298,
      "37": 5299,
      "dikenal": 5300,
      "could": 5301,
      "aset": 5302,
      "hukuman": 5303,
      "To": 5304,
      "moral": 5305,
      "mesyuarat": 5306,
      "##angnya": 5307,
      "Comp": 5308,
      "membeli": 5309,
      "##indungan": 5310,
      "ques": 5311,
      "Wah": 5312,
      "##onton": 5313,
      "fokus": 5314,
      "##puti": 5315,
      "##ahaman": 5316,
      "kenal": 5317,
      "bayaran": 5318,
      "after": 5319,
      "##incang": 5320,
      "PEMBERITAHUAN": 5321,
      "##odoh": 5322,
      "bukti": 5323,
      "##iwa": 5324,
      "Muk": 5325,
      "nasional": 5326,
      "Kesihatan": 5327,
      "those": 5328,
      "panas": 5329,
      "Semen": 5330,
      "layak": 5331,
      "38": 5332,
      "##lear": 5333,
      "standard": 5334,
      "every": 5335,
      "##act": 5336,
      "sa": 5337,
      "##juangan": 5338,
      "kebaikan": 5339,
      "##ulas": 5340,
      "##lebihan": 5341,
      "hamb": 5342,
      "##SIA": 5343,
      "hutan": 5344,
      "Sub": 5345,
      "We": 5346,
      "kahwin": 5347,
      "era": 5348,
      "pembangkang": 5349,
      "##kar": 5350,
      "##flik": 5351,
      "##gin": 5352,
      "Perkhidmatan": 5353,
      "##usun": 5354,
      "Mis": 5355,
      "darah": 5356,
      "member": 5357,
      "##ication": 5358,
      "Sejarah": 5359,
      "##lom": 5360,
      "##jata": 5361,
      "##ester": 5362,
      "##OM": 5363,
      "popular": 5364,
      "spec": 5365,
      "##lasi": 5366,
      "##sible": 5367,
      "liter": 5368,
      "Bab": 5369,
      "analy": 5370,
      "haiwan": 5371,
      "tat": 5372,
      "##inisi": 5373,
      "doa": 5374,
      "##dahulu": 5375,
      "AB": 5376,
      "1990": 5377,
      "##esa": 5378,
      "serius": 5379,
      "hel": 5380,
      "##asat": 5381,
      "##ise": 5382,
      "##okrasi": 5383,
      "##lallah": 5384,
      "menu": 5385,
      "menyer": 5386,
      "Republik": 5387,
      "menem": 5388,
      "mendalam": 5389,
      "##okasional": 5390,
      "membuka": 5391,
      "spesi": 5392,
      "inilah": 5393,
      "ditulis": 5394,
      "pulang": 5395,
      "##inci": 5396,
      "method": 5397,
      "##aksikan": 5398,
      "##uam": 5399,
      "pihaknya": 5400,
      "Pertu": 5401,
      "spe": 5402,
      "Hasan": 5403,
      "Hassan": 5404,
      "kerusi": 5405,
      "dinyatakan": 5406,
      "putih": 5407,
      "kemampuan": 5408,
      "Lim": 5409,
      "##awarkan": 5410,
      "Rendah": 5411,
      "dakwah": 5412,
      "##nam": 5413,
      "adanya": 5414,
      "undi": 5415,
      "muk": 5416,
      "hebat": 5417,
      "Semasa": 5418,
      "##hari": 5419,
      "Pakatan": 5420,
      "##bb": 5421,
      "##mpul": 5422,
      "organis": 5423,
      "seku": 5424,
      "##cm": 5425,
      "##uluskan": 5426,
      "salam": 5427,
      "Car": 5428,
      "Ob": 5429,
      "adakah": 5430,
      "Kata": 5431,
      "Muda": 5432,
      "##thman": 5433,
      "Kemudian": 5434,
      "kurangnya": 5435,
      "manfaat": 5436,
      "subjek": 5437,
      "##lement": 5438,
      "az": 5439,
      "pah": 5440,
      "pandai": 5441,
      "diperkenalkan": 5442,
      "YB": 5443,
      "##kuh": 5444,
      "cour": 5445,
      "pus": 5446,
      "sya": 5447,
      "Darul": 5448,
      "tradisi": 5449,
      "prak": 5450,
      "##ason": 5451,
      "menim": 5452,
      "temu": 5453,
      "teaching": 5454,
      "lamb": 5455,
      "plan": 5456,
      "Mari": 5457,
      "bayar": 5458,
      "quran": 5459,
      "bahkan": 5460,
      "Anwar": 5461,
      "Band": 5462,
      "##tiga": 5463,
      "##erahkan": 5464,
      "bergerak": 5465,
      "mengkaji": 5466,
      "##to": 5467,
      "barangan": 5468,
      "naf": 5469,
      "religious": 5470,
      "mengatasi": 5471,
      "Analisis": 5472,
      "women": 5473,
      "UN": 5474,
      "##tance": 5475,
      "Sed": 5476,
      "society": 5477,
      "menyumbang": 5478,
      "dosa": 5479,
      "sila": 5480,
      "DAR": 5481,
      "br": 5482,
      "mengekalkan": 5483,
      "takkan": 5484,
      "##atic": 5485,
      "kerjaya": 5486,
      "Uj": 5487,
      "sedangkan": 5488,
      "Nik": 5489,
      "fit": 5490,
      "Sah": 5491,
      "meliputi": 5492,
      "##dom": 5493,
      "saudara": 5494,
      "berlak": 5495,
      "##ihi": 5496,
      "il": 5497,
      "##let": 5498,
      "Pengajaran": 5499,
      "Khas": 5500,
      "tulis": 5501,
      "##ekankan": 5502,
      "##libatan": 5503,
      "emas": 5504,
      "##ck": 5505,
      "41": 5506,
      "different": 5507,
      "##ulihan": 5508,
      "udara": 5509,
      "gus": 5510,
      "pelangg": 5511,
      "purata": 5512,
      "Gen": 5513,
      "imam": 5514,
      "##alatan": 5515,
      "Akhir": 5516,
      "Ro": 5517,
      "own": 5518,
      "##ingat": 5519,
      "nasihat": 5520,
      "##chi": 5521,
      "##salamu": 5522,
      "##ustaka": 5523,
      "Wanita": 5524,
      "Pejabat": 5525,
      "kelem": 5526,
      "permintaan": 5527,
      "menimbulkan": 5528,
      "Seksyen": 5529,
      "##tana": 5530,
      "##ovasi": 5531,
      "bernama": 5532,
      "34": 5533,
      "mengamalkan": 5534,
      "##fikan": 5535,
      "##edahkan": 5536,
      "ass": 5537,
      "sejumlah": 5538,
      "##elik": 5539,
      "Data": 5540,
      "##bur": 5541,
      "##dalikan": 5542,
      "##cing": 5543,
      "Razak": 5544,
      "##ange": 5545,
      "consider": 5546,
      "##abinet": 5547,
      "includ": 5548,
      "##anta": 5549,
      "York": 5550,
      "MALA": 5551,
      "strateg": 5552,
      "##sim": 5553,
      "tud": 5554,
      "tuntutan": 5555,
      "##sediaan": 5556,
      "dilaporkan": 5557,
      "##GA": 5558,
      "Jaya": 5559,
      "ep": 5560,
      "Tuj": 5561,
      "prom": 5562,
      "42": 5563,
      "dadah": 5564,
      "##ins": 5565,
      "##yam": 5566,
      "pantai": 5567,
      "##tural": 5568,
      "drama": 5569,
      "Lo": 5570,
      "padi": 5571,
      "##tahankan": 5572,
      "##olusi": 5573,
      "punca": 5574,
      "memenangi": 5575,
      "Projek": 5576,
      "MALAY": 5577,
      "iii": 5578,
      "diikuti": 5579,
      "Dua": 5580,
      "Tok": 5581,
      "ear": 5582,
      "##tors": 5583,
      "##turunan": 5584,
      "##pektif": 5585,
      "dokumen": 5586,
      "Cent": 5587,
      "bercakap": 5588,
      "kemajuan": 5589,
      "ru": 5590,
      "##forman": 5591,
      "memperkenalkan": 5592,
      "##ros": 5593,
      "teruk": 5594,
      "##enom": 5595,
      "##arai": 5596,
      "beriku": 5597,
      "##adiri": 5598,
      "Nama": 5599,
      "Gun": 5600,
      "##usahawanan": 5601,
      "##arga": 5602,
      "Sum": 5603,
      "TH": 5604,
      "sci": 5605,
      "berikutan": 5606,
      "discus": 5607,
      "##asiswa": 5608,
      "sasaran": 5609,
      "##odi": 5610,
      "berpendapat": 5611,
      "Prophet": 5612,
      "Piala": 5613,
      "menawarkan": 5614,
      "##acy": 5615,
      "laki": 5616,
      "##ekah": 5617,
      "##ilip": 5618,
      "membayar": 5619,
      "##embilan": 5620,
      "Strat": 5621,
      "##red": 5622,
      "dihadapi": 5623,
      "##dit": 5624,
      "usia": 5625,
      "penyelidik": 5626,
      "Belanda": 5627,
      "##ceed": 5628,
      "Muslims": 5629,
      "##engkap": 5630,
      "##jauh": 5631,
      "berkahwin": 5632,
      "cantik": 5633,
      "##ument": 5634,
      "Laporan": 5635,
      "Pihak": 5636,
      "tapak": 5637,
      "##ED": 5638,
      "##orn": 5639,
      "##umpul": 5640,
      "very": 5641,
      "##incip": 5642,
      "##rastruktur": 5643,
      "Fir": 5644,
      "##itmen": 5645,
      "pemilihan": 5646,
      "##dn": 5647,
      "tekanan": 5648,
      "kelemahan": 5649,
      "mengubah": 5650,
      "kekurangan": 5651,
      "pulak": 5652,
      "##acara": 5653,
      "Syeikh": 5654,
      "develop": 5655,
      "persepsi": 5656,
      "##emerlang": 5657,
      "Pustaka": 5658,
      "Kej": 5659,
      "55": 5660,
      "penubuhan": 5661,
      "##hidmat": 5662,
      "tuhan": 5663,
      "##indungi": 5664,
      "##indahan": 5665,
      "berhenti": 5666,
      "##inah": 5667,
      "##isian": 5668,
      "tarik": 5669,
      "tun": 5670,
      "English": 5671,
      "both": 5672,
      "Fakulti": 5673,
      "##pasti": 5674,
      "kesemua": 5675,
      "59": 5676,
      "500": 5677,
      "##akwaan": 5678,
      "##visyen": 5679,
      "Pelak": 5680,
      "##eliling": 5681,
      "Umum": 5682,
      "Learning": 5683,
      "##sh": 5684,
      "mengan": 5685,
      "just": 5686,
      "mcm": 5687,
      "##indu": 5688,
      "##rik": 5689,
      "tep": 5690,
      "##salamualaikum": 5691,
      "sing": 5692,
      "##GI": 5693,
      "Siti": 5694,
      "bukannya": 5695,
      "mean": 5696,
      "Setiausaha": 5697,
      "cri": 5698,
      "komponen": 5699,
      "193": 5700,
      "MALAYSIA": 5701,
      "meman": 5702,
      "##rael": 5703,
      "##ukum": 5704,
      "46": 5705,
      "World": 5706,
      "Model": 5707,
      "rujukan": 5708,
      "signifikan": 5709,
      "##ick": 5710,
      "important": 5711,
      "sebulan": 5712,
      "berharap": 5713,
      "dipercayai": 5714,
      "lar": 5715,
      "rasulullah": 5716,
      "kecuali": 5717,
      "SOALAN": 5718,
      "Wal": 5719,
      "web": 5720,
      "bl": 5721,
      "##reen": 5722,
      "aplikasi": 5723,
      "point": 5724,
      "hitam": 5725,
      "Pri": 5726,
      "##par": 5727,
      "Pes": 5728,
      "Stud": 5729,
      "dikemukakan": 5730,
      "Jenis": 5731,
      "sisi": 5732,
      "dikenakan": 5733,
      "##loy": 5734,
      "taraf": 5735,
      "##operasi": 5736,
      "berjumlah": 5737,
      "##enggara": 5738,
      "even": 5739,
      "King": 5740,
      "maaf": 5741,
      "##0020006": 5742,
      "er": 5743,
      "kelab": 5744,
      "mencat": 5745,
      "peralatan": 5746,
      "bertemu": 5747,
      "##urna": 5748,
      "memegang": 5749,
      "state": 5750,
      "doktor": 5751,
      "##OL": 5752,
      "##alani": 5753,
      "##krip": 5754,
      "land": 5755,
      "halal": 5756,
      "terper": 5757,
      "##kip": 5758,
      "##andingkan": 5759,
      "##ode": 5760,
      "##laim": 5761,
      "teachers": 5762,
      "##dangan": 5763,
      "##mati": 5764,
      "##till": 5765,
      "terkini": 5766,
      "diketahui": 5767,
      "##ote": 5768,
      "Bay": 5769,
      "difah": 5770,
      "political": 5771,
      "##elia": 5772,
      "##udin": 5773,
      "pendek": 5774,
      "menegaskan": 5775,
      "think": 5776,
      "mencadangkan": 5777,
      "##kri": 5778,
      "garis": 5779,
      "Rev": 5780,
      "where": 5781,
      "JP": 5782,
      "Sam": 5783,
      "Do": 5784,
      "kehendak": 5785,
      "##0061": 5786,
      "##ANGAN": 5787,
      "pengundi": 5788,
      "##yakinan": 5789,
      "ori": 5790,
      "Asli": 5791,
      "##sekutif": 5792,
      "##round": 5793,
      "sul": 5794,
      "##ditor": 5795,
      "##jil": 5796,
      "ustaz": 5797,
      "esok": 5798,
      "diam": 5799,
      "##daftar": 5800,
      "##echnology": 5801,
      "##asihat": 5802,
      "dat": 5803,
      "##enang": 5804,
      "##erintah": 5805,
      "##ze": 5806,
      "pakaian": 5807,
      "##telek": 5808,
      "letak": 5809,
      "diperolehi": 5810,
      "senarai": 5811,
      "menyeluruh": 5812,
      "##alth": 5813,
      "Inter": 5814,
      "##takat": 5815,
      "bual": 5816,
      "Jangan": 5817,
      "ICT": 5818,
      "taw": 5819,
      "90": 5820,
      "membenarkan": 5821,
      "Sula": 5822,
      "Ta": 5823,
      "##ahanan": 5824,
      "##ganeg": 5825,
      "jant": 5826,
      "##afaz": 5827,
      "toward": 5828,
      "##otel": 5829,
      "rez": 5830,
      "Masalah": 5831,
      "Nilai": 5832,
      "rasuah": 5833,
      "berta": 5834,
      "97": 5835,
      "dimensi": 5836,
      "##ds": 5837,
      "##ademic": 5838,
      "##ulusan": 5839,
      "##iayaan": 5840,
      "setakat": 5841,
      "##ley": 5842,
      "memudahkan": 5843,
      "sawit": 5844,
      "Teach": 5845,
      "makluman": 5846,
      "##ral": 5847,
      "PKR": 5848,
      "Palestin": 5849,
      "##ocational": 5850,
      "##oka": 5851,
      "##44": 5852,
      "digital": 5853,
      "##ahagikan": 5854,
      "##sedur": 5855,
      "##ormati": 5856,
      "anti": 5857,
      "Tahap": 5858,
      "##arapkan": 5859,
      "cinta": 5860,
      "##hwal": 5861,
      "##alisme": 5862,
      "kaya": 5863,
      "our": 5864,
      "##ahasa": 5865,
      "diterbitkan": 5866,
      "berlangsung": 5867,
      "Anda": 5868,
      "##enomena": 5869,
      "Kap": 5870,
      "Itu": 5871,
      "Proses": 5872,
      "bunyi": 5873,
      "##view": 5874,
      "##bor": 5875,
      "##sych": 5876,
      "1995": 5877,
      "hantar": 5878,
      "giv": 5879,
      "internet": 5880,
      "conduc": 5881,
      "Sup": 5882,
      "##eth": 5883,
      "Wak": 5884,
      "##EAN": 5885,
      "##tahu": 5886,
      "##erian": 5887,
      "Beberapa": 5888,
      "org": 5889,
      "mengumumkan": 5890,
      "found": 5891,
      "##lahirkan": 5892,
      "John": 5893,
      "selesai": 5894,
      "keberkesanan": 5895,
      "##wit": 5896,
      "cur": 5897,
      "mengawal": 5898,
      "oper": 5899,
      "##gain": 5900,
      "##IPADA": 5901,
      "dibenarkan": 5902,
      "##ather": 5903,
      "DARIPADA": 5904,
      "##ducational": 5905,
      "##other": 5906,
      "Imp": 5907,
      "##kipun": 5908,
      "Emp": 5909,
      "mendakwa": 5910,
      "akhbar": 5911,
      "##lallahu": 5912,
      "best": 5913,
      "Anugerah": 5914,
      "##lumkan": 5915,
      "beradik": 5916,
      "relations": 5917,
      "43": 5918,
      "##olar": 5919,
      "##arahkan": 5920,
      "perjuangan": 5921,
      "##siding": 5922,
      "elektrik": 5923,
      "##ether": 5924,
      "tunggu": 5925,
      "setuju": 5926,
      "kebudayaan": 5927,
      "##EP": 5928,
      "##impunan": 5929,
      "payah": 5930,
      "lu": 5931,
      "##erhatian": 5932,
      "hamba": 5933,
      "aspec": 5934,
      "##FA": 5935,
      "##ivili": 5936,
      "second": 5937,
      "produc": 5938,
      "##oph": 5939,
      "Daripada": 5940,
      "##enalan": 5941,
      "Id": 5942,
      "environment": 5943,
      "sebelumnya": 5944,
      "##ativ": 5945,
      "##bility": 5946,
      "##asana": 5947,
      "majoriti": 5948,
      "banc": 5949,
      "##ority": 5950,
      "47": 5951,
      "##sign": 5952,
      "##uruteraan": 5953,
      "konflik": 5954,
      "membuktikan": 5955,
      "sihat": 5956,
      "ASEAN": 5957,
      "Perh": 5958,
      "jiwa": 5959,
      "##esh": 5960,
      "##ading": 5961,
      "1994": 5962,
      "##ities": 5963,
      "##akh": 5964,
      "##dam": 5965,
      "akaun": 5966,
      "present": 5967,
      "San": 5968,
      "put": 5969,
      "##unga": 5970,
      "Sejak": 5971,
      "##leks": 5972,
      "Falsafah": 5973,
      "risiko": 5974,
      "48": 5975,
      "##okus": 5976,
      "But": 5977,
      "##asti": 5978,
      "janji": 5979,
      "tertu": 5980,
      "subhan": 5981,
      "mental": 5982,
      "##atusan": 5983,
      "##imbangan": 5984,
      "though": 5985,
      "Dap": 5986,
      "##edahan": 5987,
      "##angguan": 5988,
      "Han": 5989,
      "##ekerjasama": 5990,
      "pelancongan": 5991,
      "penguasaan": 5992,
      "peperiksaan": 5993,
      "ketu": 5994,
      "penerbangan": 5995,
      "dicapai": 5996,
      "sesetengah": 5997,
      "band": 5998,
      "Pelan": 5999,
      "##sidangan": 6000,
      "adil": 6001,
      "##embahan": 6002,
      "merah": 6003,
      "kerap": 6004,
      "##aip": 6005,
      "##mal": 6006,
      "Pu": 6007,
      "##zed": 6008,
      "kemungkinan": 6009,
      "beh": 6010,
      "menyi": 6011,
      "jadual": 6012,
      "Anak": 6013,
      "Peri": 6014,
      "##go": 6015,
      "make": 6016,
      "play": 6017,
      "Acc": 6018,
      "##ulat": 6019,
      "sempurna": 6020,
      "Latihan": 6021,
      "Samp": 6022,
      "bersedia": 6023,
      "obser": 6024,
      "suasana": 6025,
      "lapan": 6026,
      "##umur": 6027,
      "##usahaan": 6028,
      "##afikan": 6029,
      "##aplikasi": 6030,
      "kulit": 6031,
      "Kat": 6032,
      "##iring": 6033,
      "##ale": 6034,
      "##IA": 6035,
      "memasuki": 6036,
      "requires": 6037,
      "memandangkan": 6038,
      "Perm": 6039,
      "tambah": 6040,
      "dre": 6041,
      "Sya": 6042,
      "sempadan": 6043,
      "##earn": 6044,
      "PRU": 6045,
      "bes": 6046,
      "keras": 6047,
      "auth": 6048,
      "Zah": 6049,
      "Tel": 6050,
      "##ii": 6051,
      "puasa": 6052,
      "##entif": 6053,
      "graduan": 6054,
      "##aedah": 6055,
      "pemahaman": 6056,
      "still": 6057,
      "##engku": 6058,
      "##umaat": 6059,
      "Perub": 6060,
      "##akitangan": 6061,
      "##urga": 6062,
      "##ohan": 6063,
      "##anggar": 6064,
      "individual": 6065,
      "51": 6066,
      "High": 6067,
      "##ihad": 6068,
      "kehilangan": 6069,
      "usahawan": 6070,
      "Penggunaan": 6071,
      "bersih": 6072,
      "Jurnal": 6073,
      "##APAN": 6074,
      "##temuan": 6075,
      "Say": 6076,
      "acara": 6077,
      "didakwa": 6078,
      "##emis": 6079,
      "dinamakan": 6080,
      "infrastruktur": 6081,
      "dalaman": 6082,
      "sesiapa": 6083,
      "##uruan": 6084,
      "ringkasnya": 6085,
      "menuntut": 6086,
      "1993": 6087,
      "PD": 6088,
      "##agam": 6089,
      "##pret": 6090,
      "berkongsi": 6091,
      "##ondok": 6092,
      "menjalani": 6093,
      "eth": 6094,
      "prot": 6095,
      "Konsep": 6096,
      "##006f": 6097,
      "latar": 6098,
      "##egahan": 6099,
      "##ARA": 6100,
      "pant": 6101,
      "perintah": 6102,
      "Manusia": 6103,
      "##du": 6104,
      "##unseling": 6105,
      "Seter": 6106,
      "##alai": 6107,
      "##anggup": 6108,
      "komitmen": 6109,
      "Bumiputera": 6110,
      "hadith": 6111,
      "##etua": 6112,
      "##emaah": 6113,
      "##erdekaan": 6114,
      "hid": 6115,
      "##lick": 6116,
      "same": 6117,
      "Israel": 6118,
      "##onik": 6119,
      "terlebih": 6120,
      "potensi": 6121,
      "##0074": 6122,
      "help": 6123,
      "alih": 6124,
      "##erti": 6125,
      "peri": 6126,
      "rekod": 6127,
      "contohnya": 6128,
      "sallallahu": 6129,
      "##gkatan": 6130,
      "disab": 6131,
      "masak": 6132,
      "keyakinan": 6133,
      "stesen": 6134,
      "Pertubuhan": 6135,
      "bis": 6136,
      "talian": 6137,
      "##aria": 6138,
      "Perkembangan": 6139,
      "kuliah": 6140,
      "menggantikan": 6141,
      "Seterusnya": 6142,
      "##epan": 6143,
      "kreatif": 6144,
      "mempertahankan": 6145,
      "adat": 6146,
      "AP": 6147,
      "sis": 6148,
      "minum": 6149,
      "Bersatu": 6150,
      "bekerjasama": 6151,
      "Ir": 6152,
      "##dition": 6153,
      "kempen": 6154,
      "##ajak": 6155,
      "##UT": 6156,
      "Kurikulum": 6157,
      "##aining": 6158,
      "Ikh": 6159,
      "doc": 6160,
      "rezeki": 6161,
      "##urat": 6162,
      "olah": 6163,
      "gila": 6164,
      "##ering": 6165,
      "direc": 6166,
      "##0072": 6167,
      "##angkaian": 6168,
      "##ass": 6169,
      "##ujudan": 6170,
      "sekurang": 6171,
      "sungguh": 6172,
      "##ohanan": 6173,
      "##riteria": 6174,
      "Pan": 6175,
      "Diraja": 6176,
      "Lebih": 6177,
      "umumnya": 6178,
      "buka": 6179,
      "SPRM": 6180,
      "##taf": 6181,
      "##arusnya": 6182,
      "##gkau": 6183,
      "##elihara": 6184,
      "terg": 6185,
      "role": 6186,
      "bernilai": 6187,
      "sedih": 6188,
      "Bhd": 6189,
      "penguat": 6190,
      "##ene": 6191,
      "dilahirkan": 6192,
      "Kolej": 6193,
      "##ving": 6194,
      "##iaga": 6195,
      "enable": 6196,
      "##elayan": 6197,
      "##ajet": 6198,
      "menggambarkan": 6199,
      "##akini": 6200,
      "##elbagai": 6201,
      "tamadun": 6202,
      "presiden": 6203,
      "belah": 6204,
      "##ilm": 6205,
      "##embah": 6206,
      "Perlis": 6207,
      "seti": 6208,
      "sarjana": 6209,
      "team": 6210,
      "plat": 6211,
      "##jazah": 6212,
      "pek": 6213,
      "elok": 6214,
      "radi": 6215,
      "##tle": 6216,
      "dimana": 6217,
      "Kela": 6218,
      "aras": 6219,
      "##put": 6220,
      "Liga": 6221,
      "Dapatan": 6222,
      "kebajikan": 6223,
      "Kong": 6224,
      "polisi": 6225,
      "find": 6226,
      "##omun": 6227,
      "semuanya": 6228,
      "Kanak": 6229,
      "##tinya": 6230,
      "##atistik": 6231,
      "approach": 6232,
      "test": 6233,
      "ubat": 6234,
      "##amer": 6235,
      "ditahan": 6236,
      "##azhab": 6237,
      "Begitu": 6238,
      "##entuh": 6239,
      "menjej": 6240,
      "##onstr": 6241,
      "taman": 6242,
      "perumahan": 6243,
      "##ford": 6244,
      "perundangan": 6245,
      "##masalahan": 6246,
      "##inj": 6247,
      "##rika": 6248,
      "52": 6249,
      "lengkap": 6250,
      "##engahan": 6251,
      "Ilmu": 6252,
      "nas": 6253,
      "Public": 6254,
      "cemerlang": 6255,
      "tri": 6256,
      "##ership": 6257,
      "saham": 6258,
      "public": 6259,
      "akal": 6260,
      "hujan": 6261,
      "Malaysi": 6262,
      "Ujian": 6263,
      "##ambahb": 6264,
      "##12": 6265,
      "##umpang": 6266,
      "Social": 6267,
      "panggil": 6268,
      "##ahudi": 6269,
      "sorang": 6270,
      "##erim": 6271,
      "musuh": 6272,
      "kebebasan": 6273,
      "##ria": 6274,
      "They": 6275,
      "harap": 6276,
      "real": 6277,
      "menubuhkan": 6278,
      "perlindungan": 6279,
      "reka": 6280,
      "economic": 6281,
      "sekadar": 6282,
      "##untungan": 6283,
      "disiplin": 6284,
      "psik": 6285,
      "kas": 6286,
      "##sual": 6287,
      "menganggap": 6288,
      "mekan": 6289,
      "abah": 6290,
      "saling": 6291,
      "intelek": 6292,
      "SM": 6293,
      "Pat": 6294,
      "##tin": 6295,
      "Luar": 6296,
      "Sembilan": 6297,
      "effec": 6298,
      "Sosial": 6299,
      "tug": 6300,
      "##jaj": 6301,
      "Kal": 6302,
      "##tukar": 6303,
      "coun": 6304,
      "rata": 6305,
      "pembeli": 6306,
      "pon": 6307,
      "asli": 6308,
      "Vocational": 6309,
      "angkat": 6310,
      "##oi": 6311,
      "Tas": 6312,
      "bir": 6313,
      "##andakan": 6314,
      "roh": 6315,
      "bagus": 6316,
      "kil": 6317,
      "princip": 6318,
      "##tadbir": 6319,
      "Indi": 6320,
      "49": 6321,
      "terhad": 6322,
      "minda": 6323,
      "selaras": 6324,
      "fakta": 6325,
      "pertandingan": 6326,
      "ful": 6327,
      "harian": 6328,
      "Banyak": 6329,
      "##BN": 6330,
      "ibn": 6331,
      "##ics": 6332,
      "##tusan": 6333,
      "##ampilan": 6334,
      "miskin": 6335,
      "##ilos": 6336,
      "meter": 6337,
      "##dun": 6338,
      "##enek": 6339,
      "mencukup": 6340,
      "berkhidmat": 6341,
      "hakim": 6342,
      "pertubuhan": 6343,
      "##cetus": 6344,
      "tingkat": 6345,
      "setem": 6346,
      "rak": 6347,
      "Barisan": 6348,
      "Seperti": 6349,
      "PRO": 6350,
      "##ological": 6351,
      "dew": 6352,
      "tugasan": 6353,
      "back": 6354,
      "##anggu": 6355,
      "alaihi": 6356,
      "##asaskan": 6357,
      "South": 6358,
      "bertambah": 6359,
      "##GO": 6360,
      "again": 6361,
      "##aikkan": 6362,
      "biar": 6363,
      "##utamaan": 6364,
      "nik": 6365,
      "kakitangan": 6366,
      "However": 6367,
      "Ed": 6368,
      "##omunikasi": 6369,
      "iz": 6370,
      "altern": 6371,
      "berakhir": 6372,
      "Kristian": 6373,
      "##jau": 6374,
      "karangan": 6375,
      "Fr": 6376,
      "##PP": 6377,
      "normally": 6378,
      "Rumah": 6379,
      "pengangkutan": 6380,
      "Seorang": 6381,
      "##que": 6382,
      "pengarah": 6383,
      "##injauan": 6384,
      "menghantar": 6385,
      "menyaksikan": 6386,
      "menekankan": 6387,
      "Noor": 6388,
      "makh": 6389,
      "Hidup": 6390,
      "agenda": 6391,
      "Pap": 6392,
      "senjata": 6393,
      "Technical": 6394,
      "##UB": 6395,
      "Sel": 6396,
      "Kel": 6397,
      "mengemukakan": 6398,
      "three": 6399,
      "##adanan": 6400,
      "##cy": 6401,
      "##ession": 6402,
      "##imbing": 6403,
      "##0069": 6404,
      "##adiran": 6405,
      "Es": 6406,
      "seharusnya": 6407,
      "Malaysiakini": 6408,
      "Bangsa": 6409,
      "##CE": 6410,
      "44": 6411,
      "tangg": 6412,
      "Facebook": 6413,
      "Ge": 6414,
      "Hamid": 6415,
      "pasar": 6416,
      "admin": 6417,
      "relev": 6418,
      "yak": 6419,
      "##utup": 6420,
      "sebaik": 6421,
      "Pasukan": 6422,
      "beroperasi": 6423,
      "##endaki": 6424,
      "##awang": 6425,
      "##ampil": 6426,
      "tubuh": 6427,
      "keturunan": 6428,
      "##be": 6429,
      "keempat": 6430,
      "organiz": 6431,
      "School": 6432,
      "Bakar": 6433,
      "Click": 6434,
      "rm": 6435,
      "tangga": 6436,
      "Taj": 6437,
      "##caman": 6438,
      "nk": 6439,
      "##ekanan": 6440,
      "Gu": 6441,
      "53": 6442,
      "Pol": 6443,
      "mencukupi": 6444,
      "##uality": 6445,
      "pelanggan": 6446,
      "sim": 6447,
      "##lig": 6448,
      "modern": 6449,
      "learn": 6450,
      "syariah": 6451,
      "saluran": 6452,
      "##ejut": 6453,
      "Komp": 6454,
      "lib": 6455,
      "##allah": 6456,
      "arg": 6457,
      "Semenanjung": 6458,
      "child": 6459,
      "Afrika": 6460,
      "tanaman": 6461,
      "lupa": 6462,
      "##lep": 6463,
      "Unit": 6464,
      "using": 6465,
      "pesakit": 6466,
      "keusahawanan": 6467,
      "separuh": 6468,
      "port": 6469,
      "##ampus": 6470,
      "lainnya": 6471,
      "##audi": 6472,
      "penyanyi": 6473,
      "menetapkan": 6474,
      "belia": 6475,
      "##jawat": 6476,
      "War": 6477,
      "Berhad": 6478,
      "academic": 6479,
      "merancang": 6480,
      "Yusuf": 6481,
      "penjelasan": 6482,
      "Lee": 6483,
      "end": 6484,
      "Pert": 6485,
      "##reh": 6486,
      "community": 6487,
      "patut": 6488,
      "1991": 6489,
      "##azah": 6490,
      "##rid": 6491,
      "bertanya": 6492,
      "Seg": 6493,
      "serv": 6494,
      "pemilik": 6495,
      "Sehubungan": 6496,
      "Ketiga": 6497,
      "sbb": 6498,
      "markah": 6499,
      "merasa": 6500,
      "##ulaan": 6501,
      "##andang": 6502,
      "teknikal": 6503,
      "##unggu": 6504,
      "ucapan": 6505,
      "hujung": 6506,
      "dimiliki": 6507,
      "dialog": 6508,
      "##eritakan": 6509,
      "##ony": 6510,
      "Langkah": 6511,
      "Rus": 6512,
      "Keadaan": 6513,
      "##agama": 6514,
      "##ankan": 6515,
      "##imia": 6516,
      "bot": 6517,
      "##faatkan": 6518,
      "##atikan": 6519,
      "syurga": 6520,
      "years": 6521,
      "##ASA": 6522,
      "##abit": 6523,
      "##perangan": 6524,
      "kesejah": 6525,
      "disabled": 6526,
      "##ajaya": 6527,
      "papers": 6528,
      "mengelakkan": 6529,
      "day": 6530,
      "great": 6531,
      "##ici": 6532,
      "regard": 6533,
      "memutuskan": 6534,
      "##ights": 6535,
      "Asas": 6536,
      "materi": 6537,
      "DI": 6538,
      "Sc": 6539,
      "##ler": 6540,
      "Contohnya": 6541,
      "Hospital": 6542,
      "works": 6543,
      "##lex": 6544,
      "berhampiran": 6545,
      "formal": 6546,
      "mad": 6547,
      "kesejahteraan": 6548,
      "##titud": 6549,
      "##deka": 6550,
      "harapan": 6551,
      "dibuka": 6552,
      "##tip": 6553,
      "##engkel": 6554,
      "##sidi": 6555,
      "Ban": 6556,
      "Eur": 6557,
      "she": 6558,
      "ketidak": 6559,
      "utk": 6560,
      "##hadapan": 6561,
      "memperk": 6562,
      "mengak": 6563,
      "class": 6564,
      "memohon": 6565,
      "##etri": 6566,
      "tiap": 6567,
      "Gol": 6568,
      "while": 6569,
      "makhluk": 6570,
      "65": 6571,
      "objek": 6572,
      "##ditorial": 6573,
      "ros": 6574,
      "rum": 6575,
      "##empor": 6576,
      "##tablish": 6577,
      "bangun": 6578,
      "Kebanyakan": 6579,
      "Sunnah": 6580,
      "menjelang": 6581,
      "perisian": 6582,
      "Fat": 6583,
      "Mal": 6584,
      "##ft": 6585,
      "lakukan": 6586,
      "melaporkan": 6587,
      "penglibatan": 6588,
      "pertemuan": 6589,
      "##ambahbaikan": 6590,
      "Filip": 6591,
      "gangguan": 6592,
      "Mos": 6593,
      "##enis": 6594,
      "religion": 6595,
      "56": 6596,
      "red": 6597,
      "##thers": 6598,
      "Maklum": 6599,
      "##asai": 6600,
      "Penilaian": 6601,
      "ST": 6602,
      "majikan": 6603,
      "student": 6604,
      "dibangunkan": 6605,
      "menerangkan": 6606,
      "##formance": 6607,
      "relationship": 6608,
      "fasa": 6609,
      "mempelajari": 6610,
      "##mej": 6611,
      "makin": 6612,
      "deg": 6613,
      "My": 6614,
      "##vers": 6615,
      "keuntungan": 6616,
      "cita": 6617,
      "hib": 6618,
      "##ATI": 6619,
      "self": 6620,
      "concept": 6621,
      "satunya": 6622,
      "opini": 6623,
      "mulia": 6624,
      "Brun": 6625,
      "does": 6626,
      "ris": 6627,
      "Kitab": 6628,
      "sanggup": 6629,
      "Sehingga": 6630,
      "##tivities": 6631,
      "nov": 6632,
      "kendiri": 6633,
      "##dium": 6634,
      "anaknya": 6635,
      "Management": 6636,
      "##entangkan": 6637,
      "##ubungi": 6638,
      "mendorong": 6639,
      "##DN": 6640,
      "##ipta": 6641,
      "menges": 6642,
      "Os": 6643,
      "Tenggara": 6644,
      "Looks": 6645,
      "##asilan": 6646,
      "kukuh": 6647,
      "persatuan": 6648,
      "##eda": 6649,
      "mesej": 6650,
      "##oman": 6651,
      "Mor": 6652,
      "yakni": 6653,
      "##ganya": 6654,
      "Organ": 6655,
      "1992": 6656,
      "intel": 6657,
      "##ARAN": 6658,
      "nelayan": 6659,
      "##DB": 6660,
      "gel": 6661,
      "##uhkan": 6662,
      "eksp": 6663,
      "##istr": 6664,
      "before": 6665,
      "invol": 6666,
      "niat": 6667,
      "Adakah": 6668,
      "Hakim": 6669,
      "televisyen": 6670,
      "topik": 6671,
      "##lor": 6672,
      "##inasi": 6673,
      "akhirat": 6674,
      "##illion": 6675,
      "##imbingan": 6676,
      "##ongsian": 6677,
      "##iritual": 6678,
      "##uments": 6679,
      "minim": 6680,
      "Komunikasi": 6681,
      "difahami": 6682,
      "##anjurkan": 6683,
      "disampaikan": 6684,
      "##media": 6685,
      "tersendiri": 6686,
      "tema": 6687,
      "faedah": 6688,
      "pelatih": 6689,
      "each": 6690,
      "kemenangan": 6691,
      "##unkan": 6692,
      "##aranya": 6693,
      "##jan": 6694,
      "hakikat": 6695,
      "Ang": 6696,
      "call": 6697,
      "sosi": 6698,
      "pl": 6699,
      "##aih": 6700,
      "Mon": 6701,
      "seolah": 6702,
      "RM3": 6703,
      "DUN": 6704,
      "see": 6705,
      "Pertanian": 6706,
      "permasalahan": 6707,
      "terperinci": 6708,
      "##alib": 6709,
      "gabungan": 6710,
      "komen": 6711,
      "##angkitkan": 6712,
      "multi": 6713,
      "##pt": 6714,
      "ditunjukkan": 6715,
      "bancian": 6716,
      "##ijrah": 6717,
      "pemerhatian": 6718,
      "96": 6719,
      "kiri": 6720,
      "kebi": 6721,
      "kilang": 6722,
      "##airan": 6723,
      "tek": 6724,
      "##edari": 6725,
      "terdahulu": 6726,
      "seng": 6727,
      "berumur": 6728,
      "motivasi": 6729,
      "##anusi": 6730,
      "prosedur": 6731,
      "##raya": 6732,
      "202": 6733,
      "interest": 6734,
      "54": 6735,
      "akak": 6736,
      "berani": 6737,
      "menangis": 6738,
      "melancarkan": 6739,
      "##wah": 6740,
      "Mc": 6741,
      "diorang": 6742,
      "pal": 6743,
      "kemerdekaan": 6744,
      "Respon": 6745,
      "##etik": 6746,
      "Mahm": 6747,
      "Aktiviti": 6748,
      "Law": 6749,
      "means": 6750,
      "##tir": 6751,
      "ketingg": 6752,
      "Ha": 6753,
      "ketara": 6754,
      "75": 6755,
      "nenek": 6756,
      "Kertas": 6757,
      "penjara": 6758,
      "Bud": 6759,
      "Filipina": 6760,
      "perdana": 6761,
      "Ur": 6762,
      "58": 6763,
      "Ra": 6764,
      "kelebihan": 6765,
      "Naz": 6766,
      "Shafi": 6767,
      "##kap": 6768,
      "Khaldun": 6769,
      "Sarjana": 6770,
      "##emahan": 6771,
      "1980": 6772,
      "gelaran": 6773,
      "keutamaan": 6774,
      "membunuh": 6775,
      "Yusof": 6776,
      "MA": 6777,
      "Sekiranya": 6778,
      "establish": 6779,
      "temb": 6780,
      "##ukaran": 6781,
      "ki": 6782,
      "##leg": 6783,
      "##anjir": 6784,
      "##urans": 6785,
      "Pelaksanaan": 6786,
      "##rajaya": 6787,
      "##daftaran": 6788,
      "persembahan": 6789,
      "##ALAM": 6790,
      "pemandu": 6791,
      "Ten": 6792,
      "question": 6793,
      "power": 6794,
      "National": 6795,
      "berupaya": 6796,
      "##ganasan": 6797,
      "perform": 6798,
      "sehari": 6799,
      "##ries": 6800,
      "dibahagikan": 6801,
      "loc": 6802,
      "##etuai": 6803,
      "Tanjung": 6804,
      "Ay": 6805,
      "haji": 6806,
      "ye": 6807,
      "wajar": 6808,
      "Hubungan": 6809,
      "##alin": 6810,
      "##pirasi": 6811,
      "192": 6812,
      "sew": 6813,
      "personal": 6814,
      "##isy": 6815,
      "##ody": 6816,
      "##ublish": 6817,
      "anim": 6818,
      "##alanya": 6819,
      "##eknik": 6820,
      "beriman": 6821,
      "Dep": 6822,
      "kayu": 6823,
      "aff": 6824,
      "##ahar": 6825,
      "##mbangkan": 6826,
      "57": 6827,
      "lawan": 6828,
      "Mungkin": 6829,
      "##unda": 6830,
      "ancaman": 6831,
      "##fikasi": 6832,
      "berfungsi": 6833,
      "kok": 6834,
      "##edan": 6835,
      "misalnya": 6836,
      "98": 6837,
      "##entikan": 6838,
      "##kannya": 6839,
      "Can": 6840,
      "cal": 6841,
      "##ove": 6842,
      "kam": 6843,
      "mengumpul": 6844,
      "Baginda": 6845,
      "berkem": 6846,
      "cuti": 6847,
      "permulaan": 6848,
      "Menurutnya": 6849,
      "mestilah": 6850,
      "tahan": 6851,
      "##ysi": 6852,
      "jarak": 6853,
      "##urther": 6854,
      "vir": 6855,
      "##afik": 6856,
      "Bel": 6857,
      "##alisasi": 6858,
      "Human": 6859,
      "right": 6860,
      "information": 6861,
      "result": 6862,
      "Bak": 6863,
      "jawatankuasa": 6864,
      "impak": 6865,
      "mov": 6866,
      "tip": 6867,
      "gas": 6868,
      "##uasan": 6869,
      "setempat": 6870,
      "membi": 6871,
      "##EG": 6872,
      "Faktor": 6873,
      "activities": 6874,
      "menurun": 6875,
      "##uju": 6876,
      "##anusiaan": 6877,
      "berlakunya": 6878,
      "keganasan": 6879,
      "amanah": 6880,
      "Agung": 6881,
      "##can": 6882,
      "Prosiding": 6883,
      "meluas": 6884,
      "Kabinet": 6885,
      "scholar": 6886,
      "subhanahu": 6887,
      "diperuntukkan": 6888,
      "##pos": 6889,
      "clear": 6890,
      "dibincangkan": 6891,
      "SAW": 6892,
      "##sepadu": 6893,
      "PB": 6894,
      "tamat": 6895,
      "Sain": 6896,
      "mari": 6897,
      "Ni": 6898,
      "aspects": 6899,
      "##ayaran": 6900,
      "Berk": 6901,
      "memperb": 6902,
      "##ediaan": 6903,
      "##hile": 6904,
      "ikh": 6905,
      "##anjutkan": 6906,
      "##enarai": 6907,
      "majalah": 6908,
      "beragama": 6909,
      "##angkitan": 6910,
      "##azim": 6911,
      "jahat": 6912,
      "dimas": 6913,
      "jarang": 6914,
      "Of": 6915,
      "##uz": 6916,
      "##dir": 6917,
      "mala": 6918,
      "##fik": 6919,
      "respond": 6920,
      "##upuk": 6921,
      "##sihan": 6922,
      "##urikulum": 6923,
      "pemulihan": 6924,
      "UKM": 6925,
      "##alifah": 6926,
      "istim": 6927,
      "##indahkan": 6928,
      "impro": 6929,
      "diminta": 6930,
      "##andatangani": 6931,
      "sembilan": 6932,
      "##abel": 6933,
      "during": 6934,
      "menjejaskan": 6935,
      "##juk": 6936,
      "offic": 6937,
      "##lew": 6938,
      "##warkan": 6939,
      "1970": 6940,
      "##yle": 6941,
      "##ulih": 6942,
      "pertengahan": 6943,
      "Lat": 6944,
      "sesama": 6945,
      "Rancangan": 6946,
      "mili": 6947,
      "##turan": 6948,
      "ajar": 6949,
      "##ANA": 6950,
      "abd": 6951,
      "PT": 6952,
      "influ": 6953,
      "lawatan": 6954,
      "melayu": 6955,
      "berkualiti": 6956,
      "BAH": 6957,
      "dikaitkan": 6958,
      "kelayakan": 6959,
      "plas": 6960,
      "Seni": 6961,
      "keseluruhannya": 6962,
      "uk": 6963,
      "dewan": 6964,
      "mazhab": 6965,
      "##etensi": 6966,
      "sain": 6967,
      "##buan": 6968,
      "##org": 6969,
      "engkau": 6970,
      "Standard": 6971,
      "ditawarkan": 6972,
      "##udul": 6973,
      "iv": 6974,
      "kelihatan": 6975,
      "What": 6976,
      "Keluarga": 6977,
      "menik": 6978,
      "Perj": 6979,
      "##rama": 6980,
      "pember": 6981,
      "platform": 6982,
      "artis": 6983,
      "Putra": 6984,
      "kons": 6985,
      "ibadah": 6986,
      "##ially": 6987,
      "sempena": 6988,
      "NGO": 6989,
      "Adam": 6990,
      "diamalkan": 6991,
      "##lid": 6992,
      "##eck": 6993,
      "since": 6994,
      "TVE": 6995,
      "signific": 6996,
      "Bad": 6997,
      "identiti": 6998,
      "May": 6999,
      "pembiayaan": 7000,
      "pergerakan": 7001,
      "GST": 7002,
      "##vensi": 7003,
      "sempat": 7004,
      "ped": 7005,
      "##diaman": 7006,
      "El": 7007,
      "fenomena": 7008,
      "##ektif": 7009,
      "##ilosoph": 7010,
      "##tujuan": 7011,
      "Dah": 7012,
      "penambahbaikan": 7013,
      "##imah": 7014,
      "takde": 7015,
      "without": 7016,
      "ilm": 7017,
      "##yarak": 7018,
      "##aparkan": 7019,
      "Pendekatan": 7020,
      "##emaran": 7021,
      "lingk": 7022,
      "inovasi": 7023,
      "online": 7024,
      "Malik": 7025,
      "keag": 7026,
      "dek": 7027,
      "##ced": 7028,
      "single": 7029,
      "bintang": 7030,
      "##uraian": 7031,
      "get": 7032,
      "hasrat": 7033,
      "mag": 7034,
      "dewasa": 7035,
      "bahagi": 7036,
      "Zak": 7037,
      "##nan": 7038,
      "akses": 7039,
      "##ends": 7040,
      "kosong": 7041,
      "##oa": 7042,
      "Tengku": 7043,
      "sampel": 7044,
      "##lapan": 7045,
      "##ret": 7046,
      "##fikir": 7047,
      "Foto": 7048,
      "post": 7049,
      "TUAN": 7050,
      "##action": 7051,
      "Keselamatan": 7052,
      "dibentuk": 7053,
      "App": 7054,
      "Brunei": 7055,
      "penggan": 7056,
      "ayam": 7057,
      "Zul": 7058,
      "gambaran": 7059,
      "dikaji": 7060,
      "incre": 7061,
      "Putrajaya": 7062,
      "bel": 7063,
      "##enting": 7064,
      "##afiz": 7065,
      "bapak": 7066,
      "burung": 7067,
      "menghadiri": 7068,
      "##juang": 7069,
      "mesin": 7070,
      "##entuan": 7071,
      "fre": 7072,
      "mulut": 7073,
      "nature": 7074,
      "imej": 7075,
      "paper": 7076,
      "malu": 7077,
      "##agalan": 7078,
      "##dis": 7079,
      "demokrasi": 7080,
      "tengg": 7081,
      "##ewat": 7082,
      "peperangan": 7083,
      "anugerah": 7084,
      "bertentangan": 7085,
      "##akanan": 7086,
      "pelancong": 7087,
      "employ": 7088,
      "pedag": 7089,
      "lari": 7090,
      "penekanan": 7091,
      "susulan": 7092,
      "usul": 7093,
      "Tiada": 7094,
      "cent": 7095,
      "kemalangan": 7096,
      "DALAM": 7097,
      "etika": 7098,
      "##oo": 7099,
      "depa": 7100,
      "##ertaan": 7101,
      "62": 7102,
      "Idris": 7103,
      "rangkaian": 7104,
      "JAWAPAN": 7105,
      "diluluskan": 7106,
      "##isytih": 7107,
      "anjing": 7108,
      "##gus": 7109,
      "##70": 7110,
      "contr": 7111,
      "kenaikan": 7112,
      "civili": 7113,
      "##anyalah": 7114,
      "off": 7115,
      "Omar": 7116,
      "memberitahu": 7117,
      "DATO": 7118,
      "kuan": 7119,
      "meri": 7120,
      "##angkit": 7121,
      "subsidi": 7122,
      "##jur": 7123,
      "##tit": 7124,
      "tutup": 7125,
      "##essional": 7126,
      "spesies": 7127,
      "##lian": 7128,
      "mi": 7129,
      "tunjuk": 7130,
      "##onok": 7131,
      "Saudi": 7132,
      "##ajukan": 7133,
      "Tujuan": 7134,
      "towards": 7135,
      "khid": 7136,
      "analysis": 7137,
      "now": 7138,
      "##unjung": 7139,
      "##timb": 7140,
      "pengajar": 7141,
      "Lepas": 7142,
      "memperuntukkan": 7143,
      "Fin": 7144,
      "Conference": 7145,
      "##him": 7146,
      "Menj": 7147,
      "Kawasan": 7148,
      "last": 7149,
      "membangun": 7150,
      "tegas": 7151,
      "khidmat": 7152,
      "##ogi": 7153,
      "1MDB": 7154,
      "cikgu": 7155,
      "pul": 7156,
      "mengakui": 7157,
      "Kor": 7158,
      "1988": 7159,
      "##bual": 7160,
      "Media": 7161,
      "190": 7162,
      "petani": 7163,
      "stab": 7164,
      "Science": 7165,
      "##ebarkan": 7166,
      "##ehendaki": 7167,
      "pimpinan": 7168,
      "##nyataan": 7169,
      "##amatkan": 7170,
      "Keh": 7171,
      "##ino": 7172,
      "##lamak": 7173,
      "##ASI": 7174,
      "Pantai": 7175,
      "##ined": 7176,
      "Internet": 7177,
      "##ampaian": 7178,
      "bersesuaian": 7179,
      "lim": 7180,
      "diajar": 7181,
      "berperanan": 7182,
      "perusahaan": 7183,
      "asalnya": 7184,
      "dikur": 7185,
      "bersemp": 7186,
      "fiqh": 7187,
      "##ants": 7188,
      "##ices": 7189,
      "##ists": 7190,
      "dakwaan": 7191,
      "menunggu": 7192,
      "Hi": 7193,
      "##jad": 7194,
      "##lution": 7195,
      "##waktu": 7196,
      "adv": 7197,
      "##soci": 7198,
      "##amanan": 7199,
      "sm": 7200,
      "##icara": 7201,
      "##allam": 7202,
      "##langan": 7203,
      "memat": 7204,
      "##its": 7205,
      "far": 7206,
      "nor": 7207,
      "insi": 7208,
      "kod": 7209,
      "##inter": 7210,
      "keboleh": 7211,
      "nasib": 7212,
      "##atangan": 7213,
      "##abahasa": 7214,
      "Lib": 7215,
      "##tingkatkan": 7216,
      "Terhadap": 7217,
      "##estern": 7218,
      "sejenis": 7219,
      "realiti": 7220,
      "66": 7221,
      "##ages": 7222,
      "Jok": 7223,
      "##alil": 7224,
      "tari": 7225,
      "matematik": 7226,
      "versi": 7227,
      "menguruskan": 7228,
      "keterangan": 7229,
      "penumpang": 7230,
      "##006e": 7231,
      "berhadapan": 7232,
      "Roh": 7233,
      "titik": 7234,
      "Surah": 7235,
      "##alahkan": 7236,
      "##AMA": 7237,
      "implement": 7238,
      "191": 7239,
      "##ouse": 7240,
      "tik": 7241,
      "##rehensi": 7242,
      "cek": 7243,
      "financ": 7244,
      "TVEIS": 7245,
      "##OS": 7246,
      "1989": 7247,
      "sejauh": 7248,
      "Mel": 7249,
      "kediaman": 7250,
      "pembaca": 7251,
      "metod": 7252,
      "Studies": 7253,
      "##encana": 7254,
      "Puan": 7255,
      "audi": 7256,
      "300": 7257,
      "saiz": 7258,
      "lisan": 7259,
      "cender": 7260,
      "understanding": 7261,
      "misi": 7262,
      "##aktif": 7263,
      "63": 7264,
      "aksi": 7265,
      "mencipta": 7266,
      "truth": 7267,
      "##ustakaan": 7268,
      "bayi": 7269,
      "reason": 7270,
      "menging": 7271,
      "Bus": 7272,
      "##omba": 7273,
      "Ikhwan": 7274,
      "sambutan": 7275,
      "kehadiran": 7276,
      "##aving": 7277,
      "Fiqh": 7278,
      "##AJIAN": 7279,
      "##awak": 7280,
      "menuju": 7281,
      "##gen": 7282,
      "##antauan": 7283,
      "##CA": 7284,
      "gemb": 7285,
      "##eness": 7286,
      "Commun": 7287,
      "##egah": 7288,
      "enj": 7289,
      "berasa": 7290,
      "Mun": 7291,
      "##alleng": 7292,
      "jiran": 7293,
      "Maha": 7294,
      "##ahari": 7295,
      "##oga": 7296,
      "banjir": 7297,
      "menjamin": 7298,
      "Chin": 7299,
      "67": 7300,
      "support": 7301,
      "##eved": 7302,
      "sewaktu": 7303,
      "melindungi": 7304,
      "##inggalah": 7305,
      "mengembangkan": 7306,
      "behavi": 7307,
      "##ocus": 7308,
      "berdepan": 7309,
      "Teknik": 7310,
      "##elbagaian": 7311,
      "RM5": 7312,
      "##uction": 7313,
      "alhamdulillah": 7314,
      "selesa": 7315,
      "kelulusan": 7316,
      "berbahasa": 7317,
      "##araya": 7318,
      "interpret": 7319,
      "down": 7320,
      "related": 7321,
      "lemb": 7322,
      "Sai": 7323,
      "Viet": 7324,
      "sisa": 7325,
      "instrumen": 7326,
      "##dirikan": 7327,
      "another": 7328,
      "##uduki": 7329,
      "artikel": 7330,
      "##ertain": 7331,
      "bertanding": 7332,
      "kewujudan": 7333,
      "Undangan": 7334,
      "Yahudi": 7335,
      "Mengikut": 7336,
      "Tiga": 7337,
      "Kini": 7338,
      "Agong": 7339,
      "tepi": 7340,
      "##uture": 7341,
      "Usaha": 7342,
      "##kal": 7343,
      "bro": 7344,
      "dihantar": 7345,
      "ulang": 7346,
      "management": 7347,
      "##ativiti": 7348,
      "typ": 7349,
      "sampah": 7350,
      "Nak": 7351,
      "##enaraikan": 7352,
      "kaf": 7353,
      "##41": 7354,
      "##ential": 7355,
      "dijual": 7356,
      "perspektif": 7357,
      "##dirian": 7358,
      "berpindah": 7359,
      "Sik": 7360,
      "##lad": 7361,
      "Vol": 7362,
      "four": 7363,
      "Strategi": 7364,
      "##intar": 7365,
      "izin": 7366,
      "Her": 7367,
      "##ombang": 7368,
      "Pakistan": 7369,
      "hab": 7370,
      "jualan": 7371,
      "##amal": 7372,
      "##arac": 7373,
      "##ganegara": 7374,
      "Rob": 7375,
      "menjual": 7376,
      "contin": 7377,
      "keker": 7378,
      "case": 7379,
      "pembayaran": 7380,
      "spiritual": 7381,
      "AD": 7382,
      "Rem": 7383,
      "peniaga": 7384,
      "jaminan": 7385,
      "##taraf": 7386,
      "Bil": 7387,
      "lambat": 7388,
      "Eksekutif": 7389,
      "##AYA": 7390,
      "Sebaliknya": 7391,
      "bunga": 7392,
      "puluh": 7393,
      "##roses": 7394,
      "Perumahan": 7395,
      "##ademi": 7396,
      "menghalang": 7397,
      "selari": 7398,
      "Sumat": 7399,
      "##rin": 7400,
      "start": 7401,
      "##ching": 7402,
      "lesen": 7403,
      "##ukuran": 7404,
      "practice": 7405,
      "ed": 7406,
      "##eal": 7407,
      "Perp": 7408,
      "interaksi": 7409,
      "Kecil": 7410,
      "beban": 7411,
      "tafsir": 7412,
      "lep": 7413,
      "##0064": 7414,
      "fikiran": 7415,
      "##alur": 7416,
      "##irm": 7417,
      "##ekapan": 7418,
      "dikehendaki": 7419,
      "Che": 7420,
      "design": 7421,
      "BA": 7422,
      "##ister": 7423,
      "pemberian": 7424,
      "others": 7425,
      "Hanya": 7426,
      "perkongsian": 7427,
      "Rusia": 7428,
      "maksudnya": 7429,
      "wasallam": 7430,
      "modul": 7431,
      "ujar": 7432,
      "##ye": 7433,
      "61": 7434,
      "number": 7435,
      "Item": 7436,
      "##asmi": 7437,
      "##ower": 7438,
      "lewat": 7439,
      "Artikel": 7440,
      "##0020007": 7441,
      "mut": 7442,
      "Gunung": 7443,
      "tarikh": 7444,
      "bimbingan": 7445,
      "Sim": 7446,
      "ubah": 7447,
      "##ship": 7448,
      "##erimaan": 7449,
      "menyimp": 7450,
      "##olahan": 7451,
      "##yn": 7452,
      "Char": 7453,
      "##he": 7454,
      "City": 7455,
      "jual": 7456,
      "##indaan": 7457,
      "Guan": 7458,
      "##NI": 7459,
      "sour": 7460,
      "##uraikan": 7461,
      "Memper": 7462,
      "Far": 7463,
      "sekaligus": 7464,
      "diselesaikan": 7465,
      "KL": 7466,
      "diteruskan": 7467,
      "##awangan": 7468,
      "belas": 7469,
      "Umar": 7470,
      "Salleh": 7471,
      "kesilapan": 7472,
      "Simp": 7473,
      "perlembagaan": 7474,
      "fahaman": 7475,
      "##ebaran": 7476,
      "##KU": 7477,
      "##ys": 7478,
      "##tives": 7479,
      "##ejala": 7480,
      "##isahkan": 7481,
      "cenderung": 7482,
      "##empuran": 7483,
      "##0073": 7484,
      "fat": 7485,
      "Komuniti": 7486,
      "mengapa": 7487,
      "Qu": 7488,
      "##erdasan": 7489,
      "##ently": 7490,
      "diplom": 7491,
      "##aplikasikan": 7492,
      "##impi": 7493,
      "##iraan": 7494,
      "PDRM": 7495,
      "menyentuh": 7496,
      "kac": 7497,
      "##ibatkan": 7498,
      "##patkan": 7499,
      "##ire": 7500,
      "lingkungan": 7501,
      "kepadanya": 7502,
      "autom": 7503,
      "strategik": 7504,
      "Kingdom": 7505,
      "Hol": 7506,
      "Sus": 7507,
      "id": 7508,
      "##ifest": 7509,
      "##ium": 7510,
      "1985": 7511,
      "##alat": 7512,
      "You": 7513,
      "nar": 7514,
      "culture": 7515,
      "country": 7516,
      "pay": 7517,
      "##emar": 7518,
      "##ific": 7519,
      "dibu": 7520,
      "ditentukan": 7521,
      "##elitian": 7522,
      "against": 7523,
      "##ulation": 7524,
      "Politik": 7525,
      "succ": 7526,
      "angin": 7527,
      "mendedahkan": 7528,
      "1986": 7529,
      "One": 7530,
      "##elf": 7531,
      "##hu": 7532,
      "berkait": 7533,
      "Sesungguhnya": 7534,
      "business": 7535,
      "Por": 7536,
      "ceramah": 7537,
      "Bat": 7538,
      "Ehwal": 7539,
      "getah": 7540,
      "cu": 7541,
      "##uhu": 7542,
      "##lection": 7543,
      "daging": 7544,
      "##lasan": 7545,
      "Akh": 7546,
      "keagamaan": 7547,
      "mandi": 7548,
      "keta": 7549,
      "##ancar": 7550,
      "div": 7551,
      "berlainan": 7552,
      "##toran": 7553,
      "akidah": 7554,
      "Rahim": 7555,
      "PRK": 7556,
      "national": 7557,
      "berbuat": 7558,
      "light": 7559,
      "pertahanan": 7560,
      "within": 7561,
      "sar": 7562,
      "##omes": 7563,
      "sara": 7564,
      "Teori": 7565,
      "##yangkan": 7566,
      "kunci": 7567,
      "##irah": 7568,
      "##abang": 7569,
      "ibadat": 7570,
      "Vietnam": 7571,
      "Alhamdulillah": 7572,
      "##emak": 7573,
      "cahaya": 7574,
      "##anah": 7575,
      "alternatif": 7576,
      "diangg": 7577,
      "cipta": 7578,
      "##aph": 7579,
      "##irut": 7580,
      "1987": 7581,
      "diwujudkan": 7582,
      "##ometer": 7583,
      "##idin": 7584,
      "##tig": 7585,
      "iman": 7586,
      "Peringkat": 7587,
      "##pecially": 7588,
      "Tamadun": 7589,
      "pelik": 7590,
      "indic": 7591,
      "##UD": 7592,
      "Othman": 7593,
      "Pasir": 7594,
      "##linik": 7595,
      "kriteria": 7596,
      "performance": 7597,
      "Beirut": 7598,
      "##ognitif": 7599,
      "Nya": 7600,
      "berbincang": 7601,
      "menump": 7602,
      "mengesahkan": 7603,
      "berminat": 7604,
      "Soalan": 7605,
      "bertajuk": 7606,
      "menghormati": 7607,
      "##abungkan": 7608,
      "rantau": 7609,
      "##istik": 7610,
      "MP": 7611,
      "Pertahan": 7612,
      "Saint": 7613,
      "All": 7614,
      "##ressed": 7615,
      "##patah": 7616,
      "persen": 7617,
      "pengetua": 7618,
      "teacher": 7619,
      "ditambah": 7620,
      "##alk": 7621,
      "##ugian": 7622,
      "suk": 7623,
      "##ape": 7624,
      "If": 7625,
      "##rian": 7626,
      "##aing": 7627,
      "diletakkan": 7628,
      "##ute": 7629,
      "Sta": 7630,
      "pondok": 7631,
      "Mohammad": 7632,
      "68": 7633,
      "market": 7634,
      "##UAR": 7635,
      "hotel": 7636,
      "given": 7637,
      "otak": 7638,
      "ISBN": 7639,
      "Maklumat": 7640,
      "pra": 7641,
      "pengas": 7642,
      "hanyalah": 7643,
      "dipas": 7644,
      "teras": 7645,
      "value": 7646,
      "campur": 7647,
      "ulamak": 7648,
      "Pertahanan": 7649,
      "seminggu": 7650,
      "wakaf": 7651,
      "##ceedings": 7652,
      "Port": 7653,
      "contri": 7654,
      "Kah": 7655,
      "##oung": 7656,
      "##ies": 7657,
      "bengkel": 7658,
      "##iskinan": 7659,
      "##egrasi": 7660,
      "##asiat": 7661,
      "ladang": 7662,
      "berpendapatan": 7663,
      "Lu": 7664,
      "III": 7665,
      "motor": 7666,
      "Tabung": 7667,
      "Sdn": 7668,
      "##empurn": 7669,
      "share": 7670,
      "penyel": 7671,
      "SE": 7672,
      "statistik": 7673,
      "sibuk": 7674,
      "Pengangkutan": 7675,
      "considered": 7676,
      "Mesyuarat": 7677,
      "issues": 7678,
      "examp": 7679,
      "liv": 7680,
      "Tab": 7681,
      "##ross": 7682,
      "keadilan": 7683,
      "datuk": 7684,
      "##IKAN": 7685,
      "success": 7686,
      "##ukuhkan": 7687,
      "higher": 7688,
      "style": 7689,
      "Des": 7690,
      "novel": 7691,
      "While": 7692,
      "persetujuan": 7693,
      "tolak": 7694,
      "##tro": 7695,
      "warisan": 7696,
      "##luas": 7697,
      "kolej": 7698,
      "##onj": 7699,
      "Sin": 7700,
      "Kemajuan": 7701,
      "##emangnya": 7702,
      "warganegara": 7703,
      "Er": 7704,
      "##akai": 7705,
      "pencer": 7706,
      "padang": 7707,
      "##ariskan": 7708,
      "99": 7709,
      "premis": 7710,
      "kemunc": 7711,
      "##MA": 7712,
      "##nia": 7713,
      "##apuskan": 7714,
      "syari": 7715,
      "##SP": 7716,
      "namanya": 7717,
      "hijau": 7718,
      "radio": 7719,
      "##RA": 7720,
      "especially": 7721,
      "upaya": 7722,
      "pemeriksaan": 7723,
      "pola": 7724,
      "place": 7725,
      "above": 7726,
      "West": 7727,
      "##roduc": 7728,
      "State": 7729,
      "##olis": 7730,
      "##nes": 7731,
      "##unaikan": 7732,
      "memu": 7733,
      "PEND": 7734,
      "sabar": 7735,
      "significant": 7736,
      "88": 7737,
      "nam": 7738,
      "##lihatkan": 7739,
      "penguatkuasaan": 7740,
      "##nyata": 7741,
      "occ": 7742,
      "vol": 7743,
      "71": 7744,
      "##bir": 7745,
      "IPT": 7746,
      "Keputusan": 7747,
      "##ges": 7748,
      "##akiman": 7749,
      "disokong": 7750,
      "focus": 7751,
      "bodoh": 7752,
      "##tre": 7753,
      "Kamar": 7754,
      "##struk": 7755,
      "mama": 7756,
      "sebutan": 7757,
      "##undingan": 7758,
      "sab": 7759,
      "##ambungan": 7760,
      "skim": 7761,
      "pusingan": 7762,
      "Multi": 7763,
      "grow": 7764,
      "##lahiran": 7765,
      "##lee": 7766,
      "dilancarkan": 7767,
      "Red": 7768,
      "##urunan": 7769,
      "##ments": 7770,
      "##ografi": 7771,
      "urus": 7772,
      "kaitan": 7773,
      "penyertaan": 7774,
      "Memang": 7775,
      "##adahal": 7776,
      "Bek": 7777,
      "add": 7778,
      "73": 7779,
      "mahasiswa": 7780,
      "Fre": 7781,
      "parlimen": 7782,
      "##apanya": 7783,
      "mematuhi": 7784,
      "kegagalan": 7785,
      "Peraturan": 7786,
      "aduan": 7787,
      "##alit": 7788,
      "##unca": 7789,
      "##aharuan": 7790,
      "meas": 7791,
      "deter": 7792,
      "berkomunikasi": 7793,
      "melainkan": 7794,
      "respec": 7795,
      "76": 7796,
      "plastik": 7797,
      "Objektif": 7798,
      "Kas": 7799,
      "##isual": 7800,
      "Kursus": 7801,
      "objec": 7802,
      "particip": 7803,
      "Tem": 7804,
      "Angkatan": 7805,
      "disiarkan": 7806,
      "Dic": 7807,
      "bina": 7808,
      "69": 7809,
      "Badan": 7810,
      "95": 7811,
      "ibunya": 7812,
      "diumumkan": 7813,
      "various": 7814,
      "mengakibatkan": 7815,
      "kalah": 7816,
      "kelahiran": 7817,
      "Ai": 7818,
      "constr": 7819,
      "stat": 7820,
      "murah": 7821,
      "ganti": 7822,
      "##entak": 7823,
      "##tipan": 7824,
      "Instr": 7825,
      "Society": 7826,
      "##dan": 7827,
      "Pekerja": 7828,
      "Institusi": 7829,
      "Disc": 7830,
      "72": 7831,
      "kompetensi": 7832,
      "rights": 7833,
      "teman": 7834,
      "Utusan": 7835,
      "##angkalan": 7836,
      "formula": 7837,
      "menyerang": 7838,
      "menja": 7839,
      "dimasukkan": 7840,
      "##eland": 7841,
      "##arim": 7842,
      "pendidik": 7843,
      "Pa": 7844,
      "kit": 7845,
      "Terima": 7846,
      "##oun": 7847,
      "##ulauan": 7848,
      "Cons": 7849,
      "dipen": 7850,
      "kimia": 7851,
      "##tribut": 7852,
      "pangkat": 7853,
      "##ram": 7854,
      "##sisten": 7855,
      "elektronik": 7856,
      "##elamatkan": 7857,
      "mengendalikan": 7858,
      "##alal": 7859,
      "##agar": 7860,
      "Hindu": 7861,
      "PERD": 7862,
      "##urai": 7863,
      "Tingkatan": 7864,
      "created": 7865,
      "Assalamualaikum": 7866,
      "RM4": 7867,
      "##lect": 7868,
      "Jumaat": 7869,
      "##katan": 7870,
      "kritis": 7871,
      "Sas": 7872,
      "##ustom": 7873,
      "Bantu": 7874,
      "##ady": 7875,
      "##tra": 7876,
      "##tukaran": 7877,
      "##ume": 7878,
      "##oint": 7879,
      "kerugian": 7880,
      "berulang": 7881,
      "mention": 7882,
      "Ne": 7883,
      "menyerahkan": 7884,
      "krisis": 7885,
      "##jawan": 7886,
      "setengah": 7887,
      "##rang": 7888,
      "suspek": 7889,
      "Hong": 7890,
      "seek": 7891,
      "KAJIAN": 7892,
      "sastera": 7893,
      "##emerlangan": 7894,
      "Fel": 7895,
      "Religi": 7896,
      "practic": 7897,
      "##tures": 7898,
      "##tuduh": 7899,
      "according": 7900,
      "simb": 7901,
      "##yap": 7902,
      "##ereja": 7903,
      "Suk": 7904,
      "##lepaskan": 7905,
      "Perg": 7906,
      "course": 7907,
      "dimaksud": 7908,
      "Kim": 7909,
      "Berikut": 7910,
      "Kin": 7911,
      "minimum": 7912,
      "##aff": 7913,
      "pengenalan": 7914,
      "Ari": 7915,
      "##engaruh": 7916,
      "##hani": 7917,
      "able": 7918,
      "PERDANA": 7919,
      "##alurkan": 7920,
      "fitnah": 7921,
      "dise": 7922,
      "##ults": 7923,
      "puas": 7924,
      "##ayati": 7925,
      "64": 7926,
      "hus": 7927,
      "memaklumkan": 7928,
      "Gerakan": 7929,
      "mai": 7930,
      "sedem": 7931,
      "komer": 7932,
      "##elanjawan": 7933,
      "##adis": 7934,
      "Tafsir": 7935,
      "cultural": 7936,
      "Ash": 7937,
      "Kanada": 7938,
      "##aring": 7939,
      "penerima": 7940,
      "##illah": 7941,
      "##okal": 7942,
      "kompleks": 7943,
      "##otong": 7944,
      "##AJARAN": 7945,
      "kritikal": 7946,
      "##oni": 7947,
      "Amanah": 7948,
      "##ona": 7949,
      "##epend": 7950,
      "##ampas": 7951,
      "insurans": 7952,
      "rek": 7953,
      "##ayasan": 7954,
      "terpilih": 7955,
      "##rak": 7956,
      "Iskand": 7957,
      "pesat": 7958,
      "##ements": 7959,
      "##sit": 7960,
      "Padang": 7961,
      "##ability": 7962,
      "##ujah": 7963,
      "paras": 7964,
      "certain": 7965,
      "technical": 7966,
      "##dic": 7967,
      "meneliti": 7968,
      "science": 7969,
      "Tamil": 7970,
      "pingg": 7971,
      "Bang": 7972,
      "##ineering": 7973,
      "##tapa": 7974,
      "better": 7975,
      "##ines": 7976,
      "##ilities": 7977,
      "memperbaiki": 7978,
      "##usantara": 7979,
      "Vokasional": 7980,
      "##alisasikan": 7981,
      "According": 7982,
      "Perdagangan": 7983,
      "berikutnya": 7984,
      "##UKAN": 7985,
      "pandang": 7986,
      "1984": 7987,
      "lang": 7988,
      "feel": 7989,
      "sedemikian": 7990,
      "mengenalpasti": 7991,
      "Tenaga": 7992,
      "AM": 7993,
      "05": 7994,
      "insya": 7995,
      "Benn": 7996,
      "konon": 7997,
      "##aduh": 7998,
      "binti": 7999,
      "##yo": 8000,
      "responsible": 8001,
      "Utama": 8002,
      "tukar": 8003,
      "##illa": 8004,
      "##entury": 8005,
      "terkand": 8006,
      "tumbuhan": 8007,
      "persi": 8008,
      "menemui": 8009,
      "##percayaan": 8010,
      "Ass": 8011,
      "held": 8012,
      "legal": 8013,
      "##onald": 8014,
      "dicadangkan": 8015,
      "confession": 8016,
      "murni": 8017,
      "dinilai": 8018,
      "issue": 8019,
      "sedap": 8020,
      "Sekian": 8021,
      "memerintah": 8022,
      "general": 8023,
      "sosio": 8024,
      "total": 8025,
      "##onan": 8026,
      "kelapa": 8027,
      "Group": 8028,
      "85": 8029,
      "subs": 8030,
      "inves": 8031,
      "theory": 8032,
      "Akhirnya": 8033,
      "dipelajari": 8034,
      "denda": 8035,
      "Belia": 8036,
      "Cik": 8037,
      "kekayaan": 8038,
      "repres": 8039,
      "June": 8040,
      "ditayangkan": 8041,
      "borang": 8042,
      "kecekapan": 8043,
      "memandang": 8044,
      "##OH": 8045,
      "##romosi": 8046,
      "##emuan": 8047,
      "Perjanjian": 8048,
      "bersempadan": 8049,
      "diman": 8050,
      "FEL": 8051,
      "suci": 8052,
      "meros": 8053,
      "##orak": 8054,
      "charac": 8055,
      "bunuh": 8056,
      "der": 8057,
      "##asic": 8058,
      "##ekolah": 8059,
      "tahunan": 8060,
      "mind": 8061,
      "penyampaian": 8062,
      "pilih": 8063,
      "##ulus": 8064,
      "terbabit": 8065,
      "cuc": 8066,
      "##ubur": 8067,
      "##ambatan": 8068,
      "##oyal": 8069,
      "relevan": 8070,
      "vi": 8071,
      "##atural": 8072,
      "SH": 8073,
      "##ezakan": 8074,
      "##emah": 8075,
      "Rh": 8076,
      "teb": 8077,
      "##IDIKAN": 8078,
      "partic": 8079,
      "Ox": 8080,
      "needs": 8081,
      "psikologi": 8082,
      "control": 8083,
      "interview": 8084,
      "Tambahan": 8085,
      "Panduan": 8086,
      "Matematik": 8087,
      "##ney": 8088,
      "pesan": 8089,
      "##edarkan": 8090,
      "##ertian": 8091,
      "much": 8092,
      "sesungguhnya": 8093,
      "Khalid": 8094,
      "ketent": 8095,
      "babi": 8096,
      "##laksanaan": 8097,
      "bertugas": 8098,
      "tand": 8099,
      "Amin": 8100,
      "penempatan": 8101,
      "persamaan": 8102,
      "##lakuan": 8103,
      "berke": 8104,
      "##che": 8105,
      "##bukaan": 8106,
      "##ongk": 8107,
      "pec": 8108,
      "##anjutan": 8109,
      "diharapkan": 8110,
      "Bukhari": 8111,
      "less": 8112,
      "Val": 8113,
      "jihad": 8114,
      "pegang": 8115,
      "Pekan": 8116,
      "att": 8117,
      "England": 8118,
      "peratusan": 8119,
      "##bas": 8120,
      "pendedahan": 8121,
      "peta": 8122,
      "Klang": 8123,
      "Sekarang": 8124,
      "Skim": 8125,
      "jus": 8126,
      "jan": 8127,
      "berjumpa": 8128,
      "perhubungan": 8129,
      "compet": 8130,
      "gembira": 8131,
      "kemiskinan": 8132,
      "sulung": 8133,
      "vokasional": 8134,
      "harmon": 8135,
      "##room": 8136,
      "KETI": 8137,
      "kebiasaan": 8138,
      "take": 8139,
      "Dip": 8140,
      "##ungkan": 8141,
      "##zer": 8142,
      "palsu": 8143,
      "semen": 8144,
      "eh": 8145,
      "##aijan": 8146,
      "known": 8147,
      "peguam": 8148,
      "Budaya": 8149,
      "catatan": 8150,
      "##alization": 8151,
      "pemas": 8152,
      "##ukaan": 8153,
      "prim": 8154,
      "##entasi": 8155,
      "##esak": 8156,
      "Awang": 8157,
      "Lihat": 8158,
      "super": 8159,
      "experience": 8160,
      "Amalan": 8161,
      "##ocr": 8162,
      "##hah": 8163,
      "##isod": 8164,
      "Ayat": 8165,
      "##opi": 8166,
      "##ajarnya": 8167,
      "angka": 8168,
      "intelektual": 8169,
      "##aith": 8170,
      "gejala": 8171,
      "##mg": 8172,
      "due": 8173,
      "definisi": 8174,
      "Akademi": 8175,
      "meskipun": 8176,
      "penerimaan": 8177,
      "978": 8178,
      "Peranan": 8179,
      "studi": 8180,
      "##erakkan": 8181,
      "kemasukan": 8182,
      "dirancang": 8183,
      "##043": 8184,
      "##nis": 8185,
      "##ania": 8186,
      "berpand": 8187,
      "av": 8188,
      "##yukur": 8189,
      "memantau": 8190,
      "##ejas": 8191,
      "##wayat": 8192,
      "perangai": 8193,
      "##argai": 8194,
      "Azerb": 8195,
      "hayat": 8196,
      "kerangka": 8197,
      "##GAN": 8198,
      "##ubat": 8199,
      "Cara": 8200,
      "Pur": 8201,
      "Du": 8202,
      "##vey": 8203,
      "Musa": 8204,
      "##atuhan": 8205,
      "keamanan": 8206,
      "mahir": 8207,
      "Tunku": 8208,
      "Baca": 8209,
      "ajak": 8210,
      "arguments": 8211,
      "arus": 8212,
      "Long": 8213,
      "kemanusiaan": 8214,
      "evalu": 8215,
      "Azerbaijan": 8216,
      "##atangkan": 8217,
      "kegunaan": 8218,
      "Pertuan": 8219,
      "##ubaan": 8220,
      "melanjutkan": 8221,
      "memakai": 8222,
      "##uncil": 8223,
      "kejohanan": 8224,
      "studies": 8225,
      "##BM": 8226,
      "mengukuhkan": 8227,
      "##ambilan": 8228,
      "Hukum": 8229,
      "bermas": 8230,
      "mesra": 8231,
      "indah": 8232,
      "sugg": 8233,
      "##dig": 8234,
      "##adaban": 8235,
      "##alih": 8236,
      "##tively": 8237,
      "kaunseling": 8238,
      "hat": 8239,
      "exist": 8240,
      "Hadith": 8241,
      "meraih": 8242,
      "da": 8243,
      "OF": 8244,
      "kreativiti": 8245,
      "Ho": 8246,
      "Amir": 8247,
      "77": 8248,
      "##utamakan": 8249,
      "gunung": 8250,
      "menjana": 8251,
      "mencatatkan": 8252,
      "Taw": 8253,
      "history": 8254,
      "##tifik": 8255,
      "Budd": 8256,
      "pengeluar": 8257,
      "Antaranya": 8258,
      "expla": 8259,
      "kepelbagaian": 8260,
      "skala": 8261,
      "##anjutnya": 8262,
      "Azmin": 8263,
      "Educational": 8264,
      "sambung": 8265,
      "mahal": 8266,
      "##jaan": 8267,
      "physi": 8268,
      "som": 8269,
      "BEL": 8270,
      "lec": 8271,
      "Bern": 8272,
      "##crib": 8273,
      "abu": 8274,
      "Kek": 8275,
      "major": 8276,
      "##iyyah": 8277,
      "##nai": 8278,
      "##II": 8279,
      "sengaja": 8280,
      "scholars": 8281,
      "penat": 8282,
      "##los": 8283,
      "identif": 8284,
      "##intangi": 8285,
      "hadiah": 8286,
      "##owi": 8287,
      "buruh": 8288,
      "Sw": 8289,
      "duanya": 8290,
      "minuman": 8291,
      "pertamanya": 8292,
      "tuduhan": 8293,
      "##0075": 8294,
      "KETIGA": 8295,
      "aq": 8296,
      "merasakan": 8297,
      "parents": 8298,
      "##ahasan": 8299,
      "tern": 8300,
      "##ulatan": 8301,
      "##sein": 8302,
      "##ied": 8303,
      "kelak": 8304,
      "particular": 8305,
      "Table": 8306,
      "##band": 8307,
      "concep": 8308,
      "##AND": 8309,
      "lazim": 8310,
      "berdaftar": 8311,
      "##industri": 8312,
      "Musta": 8313,
      "tet": 8314,
      "persekutuan": 8315,
      "Tempatan": 8316,
      "sultan": 8317,
      "78": 8318,
      "##enam": 8319,
      "##emas": 8320,
      "Pelanc": 8321,
      "efektif": 8322,
      "things": 8323,
      "rakaman": 8324,
      "visi": 8325,
      "Berb": 8326,
      "hear": 8327,
      "malas": 8328,
      "dirujuk": 8329,
      "istimewa": 8330,
      "menampung": 8331,
      "penyokong": 8332,
      "bertukar": 8333,
      "Cz": 8334,
      "Harian": 8335,
      "##onda": 8336,
      "##ected": 8337,
      "sewajarnya": 8338,
      "kekuasaan": 8339,
      "##alakan": 8340,
      "tp": 8341,
      "penjawat": 8342,
      "technology": 8343,
      "tinjauan": 8344,
      "##tac": 8345,
      "ans": 8346,
      "mere": 8347,
      "selaku": 8348,
      "kokurikulum": 8349,
      "Jo": 8350,
      "Sumatera": 8351,
      "##artment": 8352,
      "lembaga": 8353,
      "semester": 8354,
      "corak": 8355,
      "pemantauan": 8356,
      "##kuad": 8357,
      "communication": 8358,
      "terkandung": 8359,
      "jaringan": 8360,
      "bos": 8361,
      "Kadang": 8362,
      "##ubal": 8363,
      "kol": 8364,
      "Therefore": 8365,
      "##intas": 8366,
      "Mich": 8367,
      "##esuaikan": 8368,
      "asasi": 8369,
      "kilometer": 8370,
      "##IB": 8371,
      "pendaftaran": 8372,
      "Aspek": 8373,
      "rasul": 8374,
      "sememangnya": 8375,
      "maksim": 8376,
      "buang": 8377,
      "##cetuskan": 8378,
      "fail": 8379,
      "kla": 8380,
      "fact": 8381,
      "bahagia": 8382,
      "Bidang": 8383,
      "##ITI": 8384,
      "##ono": 8385,
      "berikan": 8386,
      "dipengaruhi": 8387,
      "bersalah": 8388,
      "melanggar": 8389,
      "Iz": 8390,
      "Psych": 8391,
      "seksual": 8392,
      "Sekitar": 8393,
      "khabar": 8394,
      "company": 8395,
      "mengulas": 8396,
      "terms": 8397,
      "normal": 8398,
      "##atalkan": 8399,
      "adab": 8400,
      "##sor": 8401,
      "Pemuda": 8402,
      "menunaikan": 8403,
      "kognitif": 8404,
      "##006f006": 8405,
      "stress": 8406,
      "ask": 8407,
      "menamatkan": 8408,
      "##pose": 8409,
      "Terbaik": 8410,
      "tiket": 8411,
      "##angkaan": 8412,
      "Bennabi": 8413,
      "##ricul": 8414,
      "Tai": 8415,
      "sensi": 8416,
      "example": 8417,
      "1983": 8418,
      "##nanya": 8419,
      "##warna": 8420,
      "bala": 8421,
      "halaman": 8422,
      "Ev": 8423,
      "jantina": 8424,
      "##bukti": 8425,
      "Czech": 8426,
      "problems": 8427,
      "##ujian": 8428,
      "##ektar": 8429,
      "##engkapi": 8430,
      "terang": 8431,
      "##luaskan": 8432,
      "alah": 8433,
      "menduduki": 8434,
      "##elam": 8435,
      "fri": 8436,
      "job": 8437,
      "pernyataan": 8438,
      "##afar": 8439,
      "##adir": 8440,
      "Halim": 8441,
      "melu": 8442,
      "Oxford": 8443,
      "persediaan": 8444,
      "akta": 8445,
      "istana": 8446,
      "action": 8447,
      "manis": 8448,
      "Star": 8449,
      "Wang": 8450,
      "menafikan": 8451,
      "##epatan": 8452,
      "menikmati": 8453,
      "pentak": 8454,
      "Perubahan": 8455,
      "further": 8456,
      "Bahkan": 8457,
      "domes": 8458,
      "Sebuah": 8459,
      "Dur": 8460,
      "##muk": 8461,
      "Peguam": 8462,
      "##migr": 8463,
      "mencabar": 8464,
      "Tat": 8465,
      "observed": 8466,
      "surau": 8467,
      "wajah": 8468,
      "mulanya": 8469,
      "opinions": 8470,
      "##tanah": 8471,
      "amal": 8472,
      "Da": 8473,
      "##jajah": 8474,
      "tab": 8475,
      "##ke": 8476,
      "##LIM": 8477,
      "fam": 8478,
      "##pective": 8479,
      "Penj": 8480,
      "Bir": 8481,
      "##ebaskan": 8482,
      "##bon": 8483,
      "sekeliling": 8484,
      "pertimb": 8485,
      "##kritik": 8486,
      "##araja": 8487,
      "mengundi": 8488,
      "terjejas": 8489,
      "##ater": 8490,
      "mencer": 8491,
      "Sir": 8492,
      "change": 8493,
      "menutup": 8494,
      "##ambang": 8495,
      "mengira": 8496,
      "##tabat": 8497,
      "##otensi": 8498,
      "##anjaran": 8499,
      "##intis": 8500,
      "##afsiran": 8501,
      "dibandingkan": 8502,
      "achi": 8503,
      "mik": 8504,
      "##oper": 8505,
      "##UH": 8506,
      "sejuk": 8507,
      "##not": 8508,
      "dengannya": 8509,
      "1982": 8510,
      "##lunya": 8511,
      "document": 8512,
      "##ambahkan": 8513,
      "kesempatan": 8514,
      "##acu": 8515,
      "Atas": 8516,
      "##unuhan": 8517,
      "##mm": 8518,
      "##rasah": 8519,
      "01": 8520,
      "These": 8521,
      "##ets": 8522,
      "##tisme": 8523,
      "##untries": 8524,
      "tingkatan": 8525,
      "AR": 8526,
      "benef": 8527,
      "konser": 8528,
      "Juara": 8529,
      "##ambar": 8530,
      "civilization": 8531,
      "bersikap": 8532,
      "memperlihatkan": 8533,
      "##SM": 8534,
      "bersyukur": 8535,
      "Mengen": 8536,
      "##embalikan": 8537,
      "kasar": 8538,
      "Kesatuan": 8539,
      "Kun": 8540,
      "tangk": 8541,
      "memanfaatkan": 8542,
      "bijak": 8543,
      "berdiri": 8544,
      "##yik": 8545,
      "jas": 8546,
      "pertukaran": 8547,
      "##inginan": 8548,
      "##ariah": 8549,
      "memupuk": 8550,
      "##bution": 8551,
      "rosak": 8552,
      "Serb": 8553,
      "kutipan": 8554,
      "Willi": 8555,
      "rup": 8556,
      "pembelian": 8557,
      "praktikal": 8558,
      "professional": 8559,
      "Bro": 8560,
      "serupa": 8561,
      "penurunan": 8562,
      "##imantan": 8563,
      "melan": 8564,
      "##eransi": 8565,
      "mendidik": 8566,
      "##ordin": 8567,
      "##ancam": 8568,
      "##lack": 8569,
      "children": 8570,
      "##enci": 8571,
      "attitud": 8572,
      "bersatu": 8573,
      "simpanan": 8574,
      "prophet": 8575,
      "wujudnya": 8576,
      "dibayar": 8577,
      "open": 8578,
      "transformasi": 8579,
      "schools": 8580,
      "ger": 8581,
      "##ended": 8582,
      "Teluk": 8583,
      "Up": 8584,
      "##nic": 8585,
      "penyediaan": 8586,
      "Sebenar": 8587,
      "##porat": 8588,
      "##industrian": 8589,
      "##ampong": 8590,
      "yaitu": 8591,
      "##apakah": 8592,
      "membuatkan": 8593,
      "Agensi": 8594,
      "Said": 8595,
      "star": 8596,
      "##fully": 8597,
      "kucing": 8598,
      "bad": 8599,
      "##TER": 8600,
      "Persidangan": 8601,
      "training": 8602,
      "pemberita": 8603,
      "matahari": 8604,
      "Iskandar": 8605,
      "free": 8606,
      "##lands": 8607,
      "daun": 8608,
      "##UA": 8609,
      "ul": 8610,
      "##hatikan": 8611,
      "become": 8612,
      "Khan": 8613,
      "189": 8614,
      "Boleh": 8615,
      "Senarai": 8616,
      "menganalisis": 8617,
      "##osakan": 8618,
      "##pertimbangkan": 8619,
      "respondents": 8620,
      "kepuasan": 8621,
      "menyedari": 8622,
      "pelabuhan": 8623,
      "Naib": 8624,
      "malaikat": 8625,
      "ringan": 8626,
      "##lected": 8627,
      "philosoph": 8628,
      "Inc": 8629,
      "memperku": 8630,
      "groups": 8631,
      "provide": 8632,
      "Ki": 8633,
      "##med": 8634,
      "diubah": 8635,
      "dreams": 8636,
      "understand": 8637,
      "pangg": 8638,
      "mengurus": 8639,
      "pencemaran": 8640,
      "gerak": 8641,
      "##hal": 8642,
      "Pla": 8643,
      "thought": 8644,
      "bererti": 8645,
      "langit": 8646,
      "seronok": 8647,
      "ess": 8648,
      "##mpu": 8649,
      "die": 8650,
      "berwarna": 8651,
      "Istana": 8652,
      "Sulaiman": 8653,
      "Sampai": 8654,
      "Azizah": 8655,
      "putus": 8656,
      "ade": 8657,
      "melawan": 8658,
      "92": 8659,
      "dimaksudkan": 8660,
      "pengenda": 8661,
      "kecerdasan": 8662,
      "tenang": 8663,
      "##sist": 8664,
      "ijazah": 8665,
      "Eks": 8666,
      "Sepanjang": 8667,
      "##aim": 8668,
      "Norway": 8669,
      "darip": 8670,
      "bapanya": 8671,
      "hiburan": 8672,
      "Gar": 8673,
      "mimpi": 8674,
      "Mukim": 8675,
      "barisan": 8676,
      "##amadhan": 8677,
      "##emuka": 8678,
      "System": 8679,
      "Bola": 8680,
      "dijelaskan": 8681,
      "Thus": 8682,
      "personaliti": 8683,
      "Koleksi": 8684,
      "gula": 8685,
      "pengusaha": 8686,
      "Jokowi": 8687,
      "including": 8688,
      "landasan": 8689,
      "##self": 8690,
      "Operasi": 8691,
      "nec": 8692,
      "upon": 8693,
      "kongsi": 8694,
      "rasional": 8695,
      "##epati": 8696,
      "exc": 8697,
      "persekolahan": 8698,
      "81": 8699,
      "following": 8700,
      "diketuai": 8701,
      "##ilar": 8702,
      "##estari": 8703,
      "##ror": 8704,
      "bakat": 8705,
      "Dav": 8706,
      "Kalimantan": 8707,
      "##did": 8708,
      "##engkapkan": 8709,
      "##injam": 8710,
      "KEM": 8711,
      "Fo": 8712,
      "don": 8713,
      "called": 8714,
      "FI": 8715,
      "Portu": 8716,
      "tindak": 8717,
      "Nusantara": 8718,
      "##yum": 8719,
      "manifest": 8720,
      "lant": 8721,
      "pendirian": 8722,
      "janganlah": 8723,
      "MAS": 8724,
      "##amis": 8725,
      "custom": 8726,
      "terbukti": 8727,
      "kepakaran": 8728,
      "##ukun": 8729,
      "##ker": 8730,
      "##ying": 8731,
      "sense": 8732,
      "Lagu": 8733,
      "##ways": 8734,
      "##ases": 8735,
      "##ubungkan": 8736,
      "terjemahan": 8737,
      "UK": 8738,
      "Zaman": 8739,
      "dh": 8740,
      "Sikap": 8741,
      "FELDA": 8742,
      "Mul": 8743,
      "##asmikan": 8744,
      "##osikal": 8745,
      "pemegang": 8746,
      "effor": 8747,
      "enggan": 8748,
      "##terinya": 8749,
      "struc": 8750,
      "Angg": 8751,
      "Lan": 8752,
      "look": 8753,
      "##jemahkan": 8754,
      "##egini": 8755,
      "Europe": 8756,
      "nyata": 8757,
      "tumbuh": 8758,
      "dimak": 8759,
      "##ean": 8760,
      "pengarang": 8761,
      "seump": 8762,
      "##baan": 8763,
      "penampilan": 8764,
      "##tein": 8765,
      "##vil": 8766,
      "bertulis": 8767,
      "Pemikiran": 8768,
      "selam": 8769,
      "responsi": 8770,
      "petunjuk": 8771,
      "##lima": 8772,
      "thinking": 8773,
      "##ark": 8774,
      "##tawan": 8775,
      "Keg": 8776,
      "Yayasan": 8777,
      "Rp": 8778,
      "memf": 8779,
      "chang": 8780,
      "nyawa": 8781,
      "words": 8782,
      "##jen": 8783,
      "bukit": 8784,
      "binatang": 8785,
      "bang": 8786,
      "area": 8787,
      "##klusi": 8788,
      "ram": 8789,
      "##ho": 8790,
      "erti": 8791,
      "Burung": 8792,
      "Op": 8793,
      "Siri": 8794,
      "disahkan": 8795,
      "82": 8796,
      "pembaharuan": 8797,
      "pintar": 8798,
      "##emimpinan": 8799,
      "kesimpulan": 8800,
      "bersepadu": 8801,
      "perbandingan": 8802,
      "Fran": 8803,
      "##ewaan": 8804,
      "American": 8805,
      "##onjol": 8806,
      "Hashim": 8807,
      "repor": 8808,
      "##AI": 8809,
      "87": 8810,
      "ditutup": 8811,
      "tawaran": 8812,
      "##kp": 8813,
      "pegangan": 8814,
      "origin": 8815,
      "##orban": 8816,
      "##eraka": 8817,
      "dibawah": 8818,
      "Kau": 8819,
      "jer": 8820,
      "##gt": 8821,
      "isyarat": 8822,
      "86": 8823,
      "perut": 8824,
      "##azil": 8825,
      "saintifik": 8826,
      "mengarahkan": 8827,
      "##etakan": 8828,
      "74": 8829,
      "Pang": 8830,
      "pengikut": 8831,
      "insiden": 8832,
      "Sciences": 8833,
      "rambut": 8834,
      "mekanisme": 8835,
      "##elation": 8836,
      "meaning": 8837,
      "Lub": 8838,
      "##elir": 8839,
      "##mate": 8840,
      "financial": 8841,
      "KO": 8842,
      "Tar": 8843,
      "menyus": 8844,
      "menyebarkan": 8845,
      "Ja": 8846,
      "##itahu": 8847,
      "##umpah": 8848,
      "##oro": 8849,
      "##takluk": 8850,
      "##PT": 8851,
      "Sebenarnya": 8852,
      "mmg": 8853,
      "##aila": 8854,
      "##pers": 8855,
      "refer": 8856,
      "##wakilan": 8857,
      "##juangkan": 8858,
      "menumpukan": 8859,
      "values": 8860,
      "episod": 8861,
      "penye": 8862,
      "mintak": 8863,
      "Madinah": 8864,
      "Pencegahan": 8865,
      "Kok": 8866,
      "provinsi": 8867,
      "##ico": 8868,
      "##eder": 8869,
      "tatabahasa": 8870,
      "gunakan": 8871,
      "##IRAN": 8872,
      "Ayah": 8873,
      "rokok": 8874,
      "menceritakan": 8875,
      "Hamzah": 8876,
      "terdekat": 8877,
      "Kesan": 8878,
      "Kejuruteraan": 8879,
      "Tu": 8880,
      "pecah": 8881,
      "##ports": 8882,
      "Zainal": 8883,
      "pentaksiran": 8884,
      "##ario": 8885,
      "mengukur": 8886,
      "raj": 8887,
      "##ayai": 8888,
      "expressed": 8889,
      "Prinsip": 8890,
      "##irik": 8891,
      "Western": 8892,
      "##ajibkan": 8893,
      "sever": 8894,
      "period": 8895,
      "berdekatan": 8896,
      "Modul": 8897,
      "memikir": 8898,
      "disertai": 8899,
      "katakan": 8900,
      "##oney": 8901,
      "##ora": 8902,
      "##inding": 8903,
      "eksport": 8904,
      "daripadanya": 8905,
      "game": 8906,
      "##sen": 8907,
      "dikendalikan": 8908,
      "NO": 8909,
      "seharian": 8910,
      "##dalaman": 8911,
      "##ression": 8912,
      "melantik": 8913,
      "##kuhkan": 8914,
      "mengangkat": 8915,
      "Sabtu": 8916,
      "Remaja": 8917,
      "dorang": 8918,
      "1979": 8919,
      "##cana": 8920,
      "##elidik": 8921,
      "Had": 8922,
      "future": 8923,
      "kli": 8924,
      "terl": 8925,
      "Kepada": 8926,
      "With": 8927,
      "hektar": 8928,
      "JAK": 8929,
      "conference": 8930,
      "Inf": 8931,
      "##minal": 8932,
      "kerosakan": 8933,
      "Jelas": 8934,
      "Maz": 8935,
      "mob": 8936,
      "equ": 8937,
      "##oke": 8938,
      "Maktab": 8939,
      "Language": 8940,
      "PEL": 8941,
      "build": 8942,
      "makmal": 8943,
      "Karim": 8944,
      "speak": 8945,
      "mengec": 8946,
      "##abiskan": 8947,
      "menahan": 8948,
      "Kuan": 8949,
      "Bersama": 8950,
      "##ird": 8951,
      "89": 8952,
      "nota": 8953,
      "principles": 8954,
      "melawat": 8955,
      "tunai": 8956,
      "##nin": 8957,
      "##ekodkan": 8958,
      "##kulasi": 8959,
      "bini": 8960,
      "Insan": 8961,
      "kejuruteraan": 8962,
      "##sing": 8963,
      "pelabur": 8964,
      "bulanan": 8965,
      "Responden": 8966,
      "Oli": 8967,
      "ideologi": 8968,
      "79": 8969,
      "Suh": 8970,
      "ummah": 8971,
      "Bahan": 8972,
      "##estinya": 8973,
      "rupa": 8974,
      "##sapp": 8975,
      "sole": 8976,
      "dri": 8977,
      "From": 8978,
      "san": 8979,
      "Bantuan": 8980,
      "durian": 8981,
      "Maw": 8982,
      "##nak": 8983,
      "bersaing": 8984,
      "Yah": 8985,
      "##juran": 8986,
      "##itri": 8987,
      "##ampilkan": 8988,
      "kesukaran": 8989,
      "true": 8990,
      "rundingan": 8991,
      "simpan": 8992,
      "##mental": 8993,
      "komited": 8994,
      "##ampasan": 8995,
      "##tabilan": 8996,
      "ID": 8997,
      "keluarganya": 8998,
      "Felda": 8999,
      "jemaah": 9000,
      "pengambilan": 9001,
      "pertimbangan": 9002,
      "mengesan": 9003,
      "Jenayah": 9004,
      "Chinese": 9005,
      "seimbang": 9006,
      "##ount": 9007,
      "Maksud": 9008,
      "Udara": 9009,
      "det": 9010,
      "Cat": 9011,
      "##val": 9012,
      "##qi": 9013,
      "##resif": 9014,
      "stabil": 9015,
      "peminat": 9016,
      "##enderungan": 9017,
      "give": 9018,
      "KB": 9019,
      "Syah": 9020,
      "##emput": 9021,
      "##buran": 9022,
      "Bilangan": 9023,
      "Sebanyak": 9024,
      "kelima": 9025,
      "PENDIDIKAN": 9026,
      "##edar": 9027,
      "walau": 9028,
      "kesep": 9029,
      "Fasa": 9030,
      "Book": 9031,
      "susu": 9032,
      "Salam": 9033,
      "##endera": 9034,
      "##ogle": 9035,
      "Sila": 9036,
      "bant": 9037,
      "berpeng": 9038,
      "##ogy": 9039,
      "gan": 9040,
      "health": 9041,
      "Britain": 9042,
      "kotak": 9043,
      "Mi": 9044,
      "kain": 9045,
      "##less": 9046,
      "members": 9047,
      "rul": 9048,
      "##isytiharkan": 9049,
      "setia": 9050,
      "Pl": 9051,
      "sistematik": 9052,
      "Masih": 9053,
      "Ment": 9054,
      "##ection": 9055,
      "gender": 9056,
      "##vious": 9057,
      "##imat": 9058,
      "pemboleh": 9059,
      "Azhar": 9060,
      "panggilan": 9061,
      "Camb": 9062,
      "##Nya": 9063,
      "rahsia": 9064,
      "Jawi": 9065,
      "##rio": 9066,
      "Mahmud": 9067,
      "strong": 9068,
      "##ived": 9069,
      "ext": 9070,
      "##asinya": 9071,
      "Based": 9072,
      "Jamal": 9073,
      "pahala": 9074,
      "Ket": 9075,
      "digelar": 9076,
      "silap": 9077,
      "halangan": 9078,
      "##ujung": 9079,
      "mentah": 9080,
      "challeng": 9081,
      "MEL": 9082,
      "want": 9083,
      "Geor": 9084,
      "come": 9085,
      "##enggaraan": 9086,
      "func": 9087,
      "##ayuan": 9088,
      "##ustry": 9089,
      "cabang": 9090,
      "Mengenai": 9091,
      "penghasilan": 9092,
      "Jaw": 9093,
      "##tujui": 9094,
      "permukaan": 9095,
      "Bangunan": 9096,
      "Franc": 9097,
      "penemuan": 9098,
      "bela": 9099,
      "bertahan": 9100,
      "ikhlas": 9101,
      "autonomi": 9102,
      "korban": 9103,
      "Perso": 9104,
      "performed": 9105,
      "dibaca": 9106,
      "tenggara": 9107,
      "maksimum": 9108,
      "Cali": 9109,
      "belanja": 9110,
      "Institute": 9111,
      "##arankan": 9112,
      "##endirian": 9113,
      "Economic": 9114,
      "meet": 9115,
      "Kesemua": 9116,
      "gelap": 9117,
      "character": 9118,
      "##fiz": 9119,
      "##ayangan": 9120,
      "pindaan": 9121,
      "line": 9122,
      "Surat": 9123,
      "83": 9124,
      "##iktirafan": 9125,
      "natural": 9126,
      "Portug": 9127,
      "Daud": 9128,
      "IT": 9129,
      "1960": 9130,
      "##foli": 9131,
      "mengenali": 9132,
      "mendatangkan": 9133,
      "sebegini": 9134,
      "##ucapkan": 9135,
      "pantas": 9136,
      "abdul": 9137,
      "Persoalan": 9138,
      "anggaran": 9139,
      "ban": 9140,
      "##ayang": 9141,
      "##ared": 9142,
      "perairan": 9143,
      "dikesan": 9144,
      "##orough": 9145,
      "##wazah": 9146,
      "Pentadbiran": 9147,
      "##ingin": 9148,
      "##prene": 9149,
      "ela": 9150,
      "sol": 9151,
      "##AF": 9152,
      "bertutur": 9153,
      "Ulama": 9154,
      "penyebaran": 9155,
      "pengurus": 9156,
      "##ilikan": 9157,
      "##ONG": 9158,
      "Temp": 9159,
      "Singapore": 9160,
      "1Malaysia": 9161,
      "jurang": 9162,
      "Then": 9163,
      "##mpau": 9164,
      "Rec": 9165,
      "##ords": 9166,
      "penelitian": 9167,
      "HAJ": 9168,
      "##jemahan": 9169,
      "##CO": 9170,
      "Trump": 9171,
      "simbol": 9172,
      "hujah": 9173,
      "screen": 9174,
      "bahaya": 9175,
      "neraka": 9176,
      "##outh": 9177,
      "Lebuh": 9178,
      "##ampur": 9179,
      "Rabu": 9180,
      "quality": 9181,
      "##vensyen": 9182,
      "kebanyakannya": 9183,
      "##zen": 9184,
      "##SAN": 9185,
      "##roversi": 9186,
      "wis": 9187,
      "menyelamatkan": 9188,
      "body": 9189,
      "jadikan": 9190,
      "unable": 9191,
      "##jualan": 9192,
      "percuma": 9193,
      "Ger": 9194,
      "##erja": 9195,
      "perbahasan": 9196,
      "jantung": 9197,
      "##emasan": 9198,
      "Pad": 9199,
      "memelihara": 9200,
      "##reet": 9201,
      "merdeka": 9202,
      "lapisan": 9203,
      "When": 9204,
      "pam": 9205,
      "##46": 9206,
      "##HM": 9207,
      "berpegang": 9208,
      "Part": 9209,
      "##fied": 9210,
      "pol": 9211,
      "##klusif": 9212,
      "percep": 9213,
      "common": 9214,
      "##ombong": 9215,
      "##conomy": 9216,
      "perak": 9217,
      "berpunca": 9218,
      "##alek": 9219,
      "##ission": 9220,
      "Kaherah": 9221,
      "sekian": 9222,
      "Polit": 9223,
      "isti": 9224,
      "Teaching": 9225,
      "concern": 9226,
      "tulang": 9227,
      "##icaraan": 9228,
      "larangan": 9229,
      "##tili": 9230,
      "today": 9231,
      "berw": 9232,
      "##unter": 9233,
      "bencana": 9234,
      "saksi": 9235,
      "tong": 9236,
      "penyi": 9237,
      "##DUL": 9238,
      "JAWAB": 9239,
      "suam": 9240,
      "Chris": 9241,
      "Ref": 9242,
      "##bo": 9243,
      "##rikan": 9244,
      "ternyata": 9245,
      "AK": 9246,
      "komersial": 9247,
      "Cuma": 9248,
      "lembut": 9249,
      "##tivity": 9250,
      "maut": 9251,
      "##badi": 9252,
      "ditan": 9253,
      "Keempat": 9254,
      "##tained": 9255,
      "terasa": 9256,
      "husband": 9257,
      "perka": 9258,
      "Hussein": 9259,
      "##ridge": 9260,
      "##una": 9261,
      "destin": 9262,
      "blok": 9263,
      "Centre": 9264,
      "##auhid": 9265,
      "kafir": 9266,
      "Sar": 9267,
      "##15": 9268,
      "sehinggalah": 9269,
      "nis": 9270,
      "##aftar": 9271,
      "Multimedia": 9272,
      "memaparkan": 9273,
      "medium": 9274,
      "taala": 9275,
      "##enan": 9276,
      "hantu": 9277,
      "Uthman": 9278,
      "##addi": 9279,
      "kedatangan": 9280,
      "##ried": 9281,
      "Bharu": 9282,
      "Huss": 9283,
      "curr": 9284,
      "Zakat": 9285,
      "Usul": 9286,
      "Sov": 9287,
      "pis": 9288,
      "pekan": 9289,
      "mencatat": 9290,
      "##arch": 9291,
      "Pelbagai": 9292,
      "##oles": 9293,
      "Mag": 9294,
[...]
